#include "magic_wand_model_data.h"


// We need to keep the data array aligned on some architectures.

#ifdef __has_attribute

#define HAVE_ATTRIBUTE(x) __has_attribute(x)

#else

#define HAVE_ATTRIBUTE(x) 0

#endif

#if HAVE_ATTRIBUTE(aligned) || (defined(__GNUC__) && !defined(__clang__))

#define DATA_ALIGN_ATTRIBUTE __attribute__((aligned(4)))

#else

#define DATA_ALIGN_ATTRIBUTE

#endif


const unsigned char g_magic_wand_model_data[] DATA_ALIGN_ATTRIBUTE = {



  0x08, 0x00, 0x00, 0x00, 0x54, 0x46, 0x4c, 0x33, 0x62, 0xff, 0xff, 0xff,
  0x03, 0x00, 0x00, 0x00, 0x10, 0x00, 0x00, 0x00, 0x24, 0x00, 0x00, 0x00,
  0x78, 0x00, 0x00, 0x00, 0x24, 0x00, 0x00, 0x00, 0x05, 0x00, 0x00, 0x00,
  0x78, 0x05, 0x00, 0x00, 0xb0, 0x04, 0x00, 0x00, 0xe0, 0x02, 0x00, 0x00,
  0x60, 0x02, 0x00, 0x00, 0x54, 0x01, 0x00, 0x00, 0x01, 0x00, 0x00, 0x00,
  0x78, 0x00, 0x00, 0x00, 0x13, 0x00, 0x00, 0x00, 0x18, 0x30, 0x00, 0x00,
  0x14, 0x30, 0x00, 0x00, 0x20, 0x2f, 0x00, 0x00, 0xa8, 0x2e, 0x00, 0x00,
  0x3c, 0x2e, 0x00, 0x00, 0xec, 0x11, 0x00, 0x00, 0x98, 0x10, 0x00, 0x00,
  0xbc, 0x0e, 0x00, 0x00, 0x60, 0x06, 0x00, 0x00, 0xfc, 0x05, 0x00, 0x00,
  0x78, 0x05, 0x00, 0x00, 0xec, 0x2f, 0x00, 0x00, 0xe8, 0x2f, 0x00, 0x00,
  0xe4, 0x2f, 0x00, 0x00, 0xe0, 0x2f, 0x00, 0x00, 0xdc, 0x2f, 0x00, 0x00,
  0xd8, 0x2f, 0x00, 0x00, 0xd4, 0x2f, 0x00, 0x00, 0xd0, 0x2f, 0x00, 0x00,
  0x0f, 0x00, 0x00, 0x00, 0x4d, 0x4c, 0x49, 0x52, 0x20, 0x43, 0x6f, 0x6e,
  0x76, 0x65, 0x72, 0x74, 0x65, 0x64, 0x2e, 0x00, 0x00, 0x00, 0x0e, 0x00,
  0x18, 0x00, 0x04, 0x00, 0x08, 0x00, 0x0c, 0x00, 0x10, 0x00, 0x14, 0x00,
  0x0e, 0x00, 0x00, 0x00, 0x14, 0x00, 0x00, 0x00, 0x5c, 0x00, 0x00, 0x00,
  0x60, 0x00, 0x00, 0x00, 0x64, 0x00, 0x00, 0x00, 0x84, 0x00, 0x00, 0x00,
  0x12, 0x00, 0x00, 0x00, 0x48, 0x2f, 0x00, 0x00, 0xe4, 0x2e, 0x00, 0x00,
  0x3c, 0x2e, 0x00, 0x00, 0xd8, 0x2d, 0x00, 0x00, 0x70, 0x2d, 0x00, 0x00,
  0x1c, 0x11, 0x00, 0x00, 0xc0, 0x0f, 0x00, 0x00, 0xe4, 0x0d, 0x00, 0x00,
  0xa0, 0x05, 0x00, 0x00, 0x3c, 0x05, 0x00, 0x00, 0xb0, 0x04, 0x00, 0x00,
  0xe8, 0x03, 0x00, 0x00, 0x38, 0x03, 0x00, 0x00, 0xa4, 0x02, 0x00, 0x00,
  0x10, 0x02, 0x00, 0x00, 0x90, 0x01, 0x00, 0x00, 0xfc, 0x00, 0x00, 0x00,
  0x80, 0x00, 0x00, 0x00, 0x01, 0x00, 0x00, 0x00, 0x00, 0x00, 0x00, 0x00,
  0x01, 0x00, 0x00, 0x00, 0x11, 0x00, 0x00, 0x00, 0x08, 0x00, 0x00, 0x00,
  0x1c, 0x04, 0x00, 0x00, 0x58, 0x03, 0x00, 0x00, 0xc8, 0x02, 0x00, 0x00,
  0x24, 0x02, 0x00, 0x00, 0xac, 0x01, 0x00, 0x00, 0x10, 0x01, 0x00, 0x00,
  0x94, 0x00, 0x00, 0x00, 0x10, 0x00, 0x00, 0x00, 0x04, 0x00, 0x00, 0x00,
  0x6d, 0x61, 0x69, 0x6e, 0x00, 0x00, 0x00, 0x00, 0x8e, 0xff, 0xff, 0xff,
  0x00, 0x00, 0x00, 0x09, 0x04, 0x00, 0x00, 0x00, 0x1c, 0x00, 0x00, 0x00,
  0x10, 0x00, 0x00, 0x00, 0x04, 0x00, 0x00, 0x00, 0x0a, 0xd2, 0xff, 0xff,
  0x00, 0x00, 0x80, 0x3f, 0x01, 0x00, 0x00, 0x00, 0x11, 0x00, 0x00, 0x00,
  0x01, 0x00, 0x00, 0x00, 0x10, 0x00, 0x00, 0x00, 0xf6, 0xfb, 0xff, 0xff,
  0x00, 0x00, 0x00, 0x19, 0x01, 0x00, 0x00, 0x00, 0x8a, 0xd1, 0xff, 0xff,
  0x10, 0x00, 0x00, 0x00, 0x12, 0x00, 0x00, 0x00, 0x14, 0x00, 0x00, 0x00,
  0x20, 0x00, 0x00, 0x00, 0x02, 0x00, 0x00, 0x00, 0x01, 0x00, 0x00, 0x00,
  0x04, 0x00, 0x00, 0x00, 0x08, 0x00, 0x00, 0x00, 0x49, 0x64, 0x65, 0x6e,
  0x74, 0x69, 0x74, 0x79, 0x00, 0x00, 0x00, 0x00, 0xc4, 0xd1, 0xff, 0xff,
  0x00, 0x00, 0x0e, 0x00, 0x18, 0x00, 0x08, 0x00, 0x0c, 0x00, 0x10, 0x00,
  0x07, 0x00, 0x14, 0x00, 0x0e, 0x00, 0x00, 0x00, 0x00, 0x00, 0x00, 0x08,
  0x03, 0x00, 0x00, 0x00, 0x18, 0x00, 0x00, 0x00, 0x0c, 0x00, 0x00, 0x00,
  0x04, 0x00, 0x00, 0x00, 0x98, 0xd1, 0xff, 0xff, 0x01, 0x00, 0x00, 0x00,
  0x10, 0x00, 0x00, 0x00, 0x03, 0x00, 0x00, 0x00, 0x0f, 0x00, 0x00, 0x00,
  0x05, 0x00, 0x00, 0x00, 0x02, 0x00, 0x00, 0x00, 0x02, 0xd2, 0xff, 0xff,
  0x10, 0x00, 0x00, 0x00, 0x11, 0x00, 0x00, 0x00, 0x14, 0x00, 0x00, 0x00,
  0x30, 0x00, 0x00, 0x00, 0x02, 0x00, 0x00, 0x00, 0x01, 0x00, 0x00, 0x00,
  0x04, 0x00, 0x00, 0x00, 0x1a, 0x00, 0x00, 0x00, 0x73, 0x65, 0x71, 0x75,
  0x65, 0x6e, 0x74, 0x69, 0x61, 0x6c, 0x2f, 0x64, 0x65, 0x6e, 0x73, 0x65,
  0x5f, 0x31, 0x2f, 0x42, 0x69, 0x61, 0x73, 0x41, 0x64, 0x64, 0x00, 0x00,
  0xf4, 0xd1, 0xff, 0xff, 0xd6, 0xfd, 0xff, 0xff, 0x00, 0x00, 0x00, 0x08,
  0x03, 0x00, 0x00, 0x00, 0x24, 0x00, 0x00, 0x00, 0x18, 0x00, 0x00, 0x00,
  0x0c, 0x00, 0x00, 0x00, 0x00, 0x00, 0x06, 0x00, 0x08, 0x00, 0x07, 0x00,
  0x06, 0x00, 0x00, 0x00, 0x00, 0x00, 0x00, 0x01, 0x01, 0x00, 0x00, 0x00,
  0x0f, 0x00, 0x00, 0x00, 0x03, 0x00, 0x00, 0x00, 0x0e, 0x00, 0x00, 0x00,
  0x04, 0x00, 0x00, 0x00, 0x01, 0x00, 0x00, 0x00, 0xfe, 0xfc, 0xff, 0xff,
  0x00, 0x00, 0x00, 0x09, 0x01, 0x00, 0x00, 0x00, 0x92, 0xd2, 0xff, 0xff,
  0x10, 0x00, 0x00, 0x00, 0x10, 0x00, 0x00, 0x00, 0x14, 0x00, 0x00, 0x00,
  0x2c, 0x00, 0x00, 0x00, 0x02, 0x00, 0x00, 0x00, 0x01, 0x00, 0x00, 0x00,
  0x10, 0x00, 0x00, 0x00, 0x15, 0x00, 0x00, 0x00, 0x73, 0x65, 0x71, 0x75,
  0x65, 0x6e, 0x74, 0x69, 0x61, 0x6c, 0x2f, 0x64, 0x65, 0x6e, 0x73, 0x65,
  0x2f, 0x52, 0x65, 0x6c, 0x75, 0x00, 0x00, 0x00, 0xd8, 0xd2, 0xff, 0xff,
  0x00, 0x00, 0x0a, 0x00, 0x10, 0x00, 0x04, 0x00, 0x08, 0x00, 0x0c, 0x00,
  0x0a, 0x00, 0x00, 0x00, 0x02, 0x00, 0x00, 0x00, 0x10, 0x00, 0x00, 0x00,
  0x04, 0x00, 0x00, 0x00, 0x01, 0x00, 0x00, 0x00, 0x0e, 0x00, 0x00, 0x00,
  0x02, 0x00, 0x00, 0x00, 0x0d, 0x00, 0x00, 0x00, 0x03, 0x00, 0x00, 0x00,
  0x7a, 0xfd, 0xff, 0xff, 0x00, 0x00, 0x00, 0x16, 0x01, 0x00, 0x00, 0x00,
  0x0e, 0xd3, 0xff, 0xff, 0x10, 0x00, 0x00, 0x00, 0x0f, 0x00, 0x00, 0x00,
  0x14, 0x00, 0x00, 0x00, 0x30, 0x00, 0x00, 0x00, 0x02, 0x00, 0x00, 0x00,
  0x01, 0x00, 0x00, 0x00, 0x70, 0x00, 0x00, 0x00, 0x1a, 0x00, 0x00, 0x00,
  0x73, 0x65, 0x71, 0x75, 0x65, 0x6e, 0x74, 0x69, 0x61, 0x6c, 0x2f, 0x66,
  0x6c, 0x61, 0x74, 0x74, 0x65, 0x6e, 0x2f, 0x52, 0x65, 0x73, 0x68, 0x61,
  0x70, 0x65, 0x00, 0x00, 0x00, 0xd3, 0xff, 0xff, 0xe2, 0xfe, 0xff, 0xff,
  0x00, 0x00, 0x00, 0x05, 0x01, 0x00, 0x00, 0x00, 0x38, 0x00, 0x00, 0x00,
  0x2c, 0x00, 0x00, 0x00, 0x14, 0x00, 0x00, 0x00, 0x00, 0x00, 0x0e, 0x00,
  0x14, 0x00, 0x00, 0x00, 0x10, 0x00, 0x0c, 0x00, 0x08, 0x00, 0x04, 0x00,
  0x0e, 0x00, 0x00, 0x00, 0x03, 0x00, 0x00, 0x00, 0x01, 0x00, 0x00, 0x00,
  0x03, 0x00, 0x00, 0x00, 0x01, 0x00, 0x00, 0x00, 0x01, 0x00, 0x00, 0x00,
  0x0d, 0x00, 0x00, 0x00, 0x01, 0x00, 0x00, 0x00, 0x0c, 0x00, 0x00, 0x00,
  0x9e, 0xd3, 0xff, 0xff, 0x10, 0x00, 0x00, 0x00, 0x0e, 0x00, 0x00, 0x00,
  0x1c, 0x00, 0x00, 0x00, 0x40, 0x00, 0x00, 0x00, 0x04, 0x00, 0x00, 0x00,
  0x01, 0x00, 0x00, 0x00, 0x07, 0x00, 0x00, 0x00, 0x01, 0x00, 0x00, 0x00,
  0x10, 0x00, 0x00, 0x00, 0x22, 0x00, 0x00, 0x00, 0x73, 0x65, 0x71, 0x75,
  0x65, 0x6e, 0x74, 0x69, 0x61, 0x6c, 0x2f, 0x6d, 0x61, 0x78, 0x5f, 0x70,
  0x6f, 0x6f, 0x6c, 0x69, 0x6e, 0x67, 0x32, 0x64, 0x5f, 0x31, 0x2f, 0x4d,
  0x61, 0x78, 0x50, 0x6f, 0x6f, 0x6c, 0x00, 0x00, 0xa0, 0xd3, 0xff, 0xff,
  0xc2, 0xfe, 0xff, 0xff, 0x00, 0x00, 0x00, 0x01, 0x24, 0x00, 0x00, 0x00,
  0x18, 0x00, 0x00, 0x00, 0x04, 0x00, 0x00, 0x00, 0xb4, 0xfe, 0xff, 0xff,
  0x01, 0x00, 0x00, 0x00, 0x01, 0x00, 0x00, 0x00, 0x00, 0x00, 0x00, 0x01,
  0x01, 0x00, 0x00, 0x00, 0x0c, 0x00, 0x00, 0x00, 0x03, 0x00, 0x00, 0x00,
  0x0b, 0x00, 0x00, 0x00, 0x07, 0x00, 0x00, 0x00, 0x09, 0x00, 0x00, 0x00,
  0x2e, 0xd4, 0xff, 0xff, 0x10, 0x00, 0x00, 0x00, 0x0d, 0x00, 0x00, 0x00,
  0x1c, 0x00, 0x00, 0x00, 0x2c, 0x00, 0x00, 0x00, 0x04, 0x00, 0x00, 0x00,
  0x01, 0x00, 0x00, 0x00, 0x15, 0x00, 0x00, 0x00, 0x01, 0x00, 0x00, 0x00,
  0x10, 0x00, 0x00, 0x00, 0x0c, 0x00, 0x00, 0x00, 0x74, 0x66, 0x6c, 0x2e,
  0x63, 0x6f, 0x6e, 0x76, 0x5f, 0x32, 0x64, 0x31, 0x00, 0x00, 0x00, 0x00,
  0x74, 0xd4, 0xff, 0xff, 0x00, 0x00, 0x0e, 0x00, 0x1a, 0x00, 0x08, 0x00,
  0x0c, 0x00, 0x10, 0x00, 0x07, 0x00, 0x14, 0x00, 0x0e, 0x00, 0x00, 0x00,
  0x00, 0x00, 0x00, 0x05, 0x01, 0x00, 0x00, 0x00, 0x3c, 0x00, 0x00, 0x00,
  0x30, 0x00, 0x00, 0x00, 0x14, 0x00, 0x00, 0x00, 0x00, 0x00, 0x0e, 0x00,
  0x18, 0x00, 0x17, 0x00, 0x10, 0x00, 0x0c, 0x00, 0x08, 0x00, 0x04, 0x00,
  0x0e, 0x00, 0x00, 0x00, 0x03, 0x00, 0x00, 0x00, 0x03, 0x00, 0x00, 0x00,
  0x03, 0x00, 0x00, 0x00, 0x03, 0x00, 0x00, 0x00, 0x00, 0x00, 0x00, 0x01,
  0x01, 0x00, 0x00, 0x00, 0x0b, 0x00, 0x00, 0x00, 0x01, 0x00, 0x00, 0x00,
  0x0a, 0x00, 0x00, 0x00, 0x46, 0xff, 0xff, 0xff, 0x00, 0x00, 0x00, 0x11,
  0x01, 0x00, 0x00, 0x00, 0xda, 0xd4, 0xff, 0xff, 0x10, 0x00, 0x00, 0x00,
  0x0c, 0x00, 0x00, 0x00, 0x1c, 0x00, 0x00, 0x00, 0x40, 0x00, 0x00, 0x00,
  0x04, 0x00, 0x00, 0x00, 0x01, 0x00, 0x00, 0x00, 0x15, 0x00, 0x00, 0x00,
  0x01, 0x00, 0x00, 0x00, 0x08, 0x00, 0x00, 0x00, 0x20, 0x00, 0x00, 0x00,
  0x73, 0x65, 0x71, 0x75, 0x65, 0x6e, 0x74, 0x69, 0x61, 0x6c, 0x2f, 0x6d,
  0x61, 0x78, 0x5f, 0x70, 0x6f, 0x6f, 0x6c, 0x69, 0x6e, 0x67, 0x32, 0x64,
  0x2f, 0x4d, 0x61, 0x78, 0x50, 0x6f, 0x6f, 0x6c, 0x00, 0x00, 0x00, 0x00,
  0x34, 0xd5, 0xff, 0xff, 0x00, 0x00, 0x0e, 0x00, 0x14, 0x00, 0x00, 0x00,
  0x08, 0x00, 0x0c, 0x00, 0x07, 0x00, 0x10, 0x00, 0x0e, 0x00, 0x00, 0x00,
  0x00, 0x00, 0x00, 0x01, 0x30, 0x00, 0x00, 0x00, 0x24, 0x00, 0x00, 0x00,
  0x10, 0x00, 0x00, 0x00, 0x0c, 0x00, 0x10, 0x00, 0x00, 0x00, 0x04, 0x00,
  0x08, 0x00, 0x0f, 0x00, 0x0c, 0x00, 0x00, 0x00, 0x01, 0x00, 0x00, 0x00,
  0x01, 0x00, 0x00, 0x00, 0x00, 0x00, 0x00, 0x01, 0x01, 0x00, 0x00, 0x00,
  0x0a, 0x00, 0x00, 0x00, 0x03, 0x00, 0x00, 0x00, 0x00, 0x00, 0x00, 0x00,
  0x06, 0x00, 0x00, 0x00, 0x08, 0x00, 0x00, 0x00, 0x00, 0x00, 0x0a, 0x00,
  0x0c, 0x00, 0x07, 0x00, 0x00, 0x00, 0x08, 0x00, 0x0a, 0x00, 0x00, 0x00,
  0x00, 0x00, 0x00, 0x03, 0x01, 0x00, 0x00, 0x00, 0x9e, 0xd5, 0xff, 0xff,
  0x10, 0x00, 0x00, 0x00, 0x0b, 0x00, 0x00, 0x00, 0x1c, 0x00, 0x00, 0x00,
  0x28, 0x00, 0x00, 0x00, 0x04, 0x00, 0x00, 0x00, 0x01, 0x00, 0x00, 0x00,
  0x40, 0x00, 0x00, 0x00, 0x03, 0x00, 0x00, 0x00, 0x08, 0x00, 0x00, 0x00,
  0x0b, 0x00, 0x00, 0x00, 0x74, 0x66, 0x6c, 0x2e, 0x63, 0x6f, 0x6e, 0x76,
  0x5f, 0x32, 0x64, 0x00, 0x88, 0xd5, 0xff, 0xff, 0x7e, 0xd6, 0xff, 0xff,
  0x04, 0x00, 0x00, 0x00, 0x40, 0x00, 0x00, 0x00, 0x63, 0xf1, 0x99, 0xbe,
  0x64, 0xbe, 0xc6, 0x3e, 0xe5, 0x93, 0xd4, 0xbe, 0x62, 0x75, 0x35, 0xbe,
  0xbb, 0x67, 0x47, 0xbf, 0x94, 0xe3, 0x98, 0xbe, 0x5b, 0x4b, 0x7c, 0x3e,
  0x73, 0x64, 0x86, 0xbe, 0x71, 0xe9, 0xb2, 0xbe, 0x51, 0xf7, 0x27, 0x3d,
  0xe3, 0xf9, 0xe2, 0xbe, 0xd8, 0x55, 0x0d, 0xbc, 0x51, 0x26, 0x8f, 0xbe,
  0xcd, 0xce, 0x6c, 0xbe, 0xfe, 0x8e, 0x0d, 0x40, 0x8c, 0xd3, 0x16, 0xbe,
  0x26, 0xd6, 0xff, 0xff, 0x10, 0x00, 0x00, 0x00, 0x0a, 0x00, 0x00, 0x00,
  0x10, 0x00, 0x00, 0x00, 0x20, 0x00, 0x00, 0x00, 0x01, 0x00, 0x00, 0x00,
  0x10, 0x00, 0x00, 0x00, 0x0d, 0x00, 0x00, 0x00, 0x73, 0x74, 0x64, 0x2e,
  0x63, 0x6f, 0x6e, 0x73, 0x74, 0x61, 0x6e, 0x74, 0x31, 0x00, 0x00, 0x00,
  0x08, 0xd6, 0xff, 0xff, 0xfe, 0xd6, 0xff, 0xff, 0x04, 0x00, 0x00, 0x00,
  0x20, 0x00, 0x00, 0x00, 0xcd, 0x47, 0x98, 0xbf, 0x39, 0xc4, 0x5a, 0x3f,
  0x37, 0x38, 0x5b, 0xbf, 0xaf, 0xc0, 0x13, 0xbf, 0x2a, 0x7a, 0x16, 0x3e,
  0x82, 0x2a, 0x81, 0xbe, 0x2d, 0xe2, 0x32, 0x3e, 0x3e, 0xd8, 0xca, 0xbf,
  0x86, 0xd6, 0xff, 0xff, 0x10, 0x00, 0x00, 0x00, 0x09, 0x00, 0x00, 0x00,
  0x10, 0x00, 0x00, 0x00, 0x20, 0x00, 0x00, 0x00, 0x01, 0x00, 0x00, 0x00,
  0x08, 0x00, 0x00, 0x00, 0x0c, 0x00, 0x00, 0x00, 0x73, 0x74, 0x64, 0x2e,
  0x63, 0x6f, 0x6e, 0x73, 0x74, 0x61, 0x6e, 0x74, 0x00, 0x00, 0x00, 0x00,
  0x68, 0xd6, 0xff, 0xff, 0x5e, 0xd7, 0xff, 0xff, 0x04, 0x00, 0x00, 0x00,
  0x00, 0x08, 0x00, 0x00, 0x02, 0x5c, 0xbc, 0xbd, 0x6a, 0x8e, 0x36, 0xbf,
  0x94, 0x3b, 0x69, 0xbd, 0xba, 0x38, 0xeb, 0x3d, 0x66, 0x8e, 0xbf, 0xbe,
  0x0f, 0x31, 0x93, 0xbd, 0x73, 0x3b, 0xdb, 0x3d, 0x1a, 0x0c, 0x83, 0xbe,
  0xcb, 0x2a, 0x7c, 0xbd, 0xdd, 0x98, 0x8d, 0xbe, 0xe6, 0xee, 0x83, 0xbe,
  0xda, 0x1b, 0x89, 0xbd, 0xa0, 0x49, 0x3b, 0xbe, 0xde, 0x5d, 0xa0, 0x3e,
  0xe8, 0xad, 0xcb, 0xbe, 0x5c, 0xca, 0x0f, 0xbe, 0xcb, 0x7f, 0xe8, 0x3c,
  0x36, 0x98, 0x37, 0xbe, 0x9e, 0x85, 0x05, 0xbf, 0x60, 0x26, 0xed, 0xbd,
  0x71, 0xc0, 0x14, 0x3d, 0x12, 0x04, 0xbc, 0x3d, 0xd0, 0x55, 0x6d, 0xbe,
  0x08, 0xab, 0x1a, 0x3e, 0x39, 0xff, 0x42, 0x3c, 0x7b, 0xac, 0x77, 0x3e,
  0xc2, 0x8e, 0x9b, 0x3d, 0x52, 0x04, 0xcf, 0xbc, 0xc4, 0x2a, 0x81, 0x3e,
  0x50, 0xf9, 0x57, 0x3e, 0xf0, 0x95, 0x2c, 0x3e, 0x21, 0xc8, 0x07, 0x3e,
  0x64, 0xe2, 0x2a, 0xbe, 0x92, 0x44, 0x0e, 0x3e, 0xa3, 0xfd, 0x11, 0xbe,
  0xdf, 0x8c, 0x23, 0xbe, 0x74, 0x95, 0xa7, 0x3d, 0x62, 0x22, 0xbb, 0x3d,
  0x1d, 0x89, 0xa2, 0xbe, 0xde, 0x36, 0x54, 0xbe, 0x96, 0x2c, 0x1b, 0xbe,
  0xf6, 0xc5, 0x87, 0xbd, 0x5a, 0xe3, 0x62, 0xbe, 0x06, 0xc9, 0xe5, 0xbe,
  0x17, 0x16, 0xa5, 0xbe, 0xdd, 0xbd, 0x30, 0x3d, 0x5c, 0x28, 0xa4, 0xbe,
  0x47, 0x15, 0x65, 0xbe, 0x90, 0x37, 0xfe, 0xbd, 0x6a, 0x1c, 0x3f, 0x3e,
  0x7c, 0xb8, 0x89, 0xbe, 0x4f, 0x86, 0x1e, 0xbd, 0xed, 0xb3, 0x2a, 0x3e,
  0x62, 0xd0, 0xda, 0x3d, 0xa3, 0x06, 0x25, 0xbe, 0x30, 0x61, 0x50, 0xbe,
  0x0f, 0xb6, 0xc6, 0x3d, 0x0b, 0x7a, 0xeb, 0x3d, 0x06, 0x32, 0x0a, 0xbe,
  0xdc, 0x36, 0x7d, 0xbe, 0x53, 0x67, 0xcb, 0x3c, 0xbd, 0xdb, 0xee, 0xbc,
  0x9e, 0x9b, 0x3a, 0x3e, 0x9c, 0x5d, 0x97, 0xbe, 0x82, 0x49, 0xb0, 0xbc,
  0x50, 0x8a, 0xbf, 0x3e, 0xec, 0x93, 0x65, 0x3e, 0x4f, 0x8b, 0x31, 0xbe,
  0x93, 0xd9, 0x7b, 0x3e, 0xc8, 0xe7, 0xe9, 0x3e, 0x83, 0x63, 0x8a, 0xbb,
  0xc9, 0x46, 0x98, 0xbd, 0x72, 0xcd, 0x83, 0x3d, 0x61, 0x77, 0x00, 0xbf,
  0x6b, 0x1a, 0x47, 0x3e, 0x2f, 0x88, 0xce, 0xbd, 0xd1, 0xd4, 0x44, 0xbe,
  0x75, 0xdf, 0xb8, 0xbe, 0x39, 0x79, 0xd0, 0xbe, 0xa0, 0x6d, 0xe9, 0xbd,
  0x9a, 0x2c, 0xcc, 0xbc, 0xbe, 0xe9, 0xff, 0xbd, 0x79, 0xbd, 0xa9, 0xbd,
  0x88, 0x6e, 0x9b, 0x3c, 0x30, 0x06, 0x6d, 0xbe, 0xe5, 0xe1, 0x8d, 0xbd,
  0x6b, 0x0a, 0x18, 0xbe, 0x77, 0x37, 0xb1, 0x3d, 0xfa, 0x62, 0xce, 0x3d,
  0x8c, 0x56, 0x36, 0xbe, 0x48, 0xa1, 0x89, 0x3e, 0x93, 0x98, 0x2a, 0x3d,
  0x6d, 0xb4, 0x66, 0xbe, 0x72, 0xd5, 0x8b, 0x3d, 0x4f, 0x58, 0xc7, 0xbd,
  0x1f, 0xb9, 0x95, 0x3c, 0x6a, 0xa9, 0x01, 0xbe, 0x95, 0x09, 0x19, 0xbf,
  0x8e, 0x0f, 0x0f, 0xbb, 0x0a, 0x1d, 0x5a, 0xbc, 0xfe, 0x22, 0x11, 0xbf,
  0xf3, 0x9c, 0x3a, 0xbd, 0x86, 0xff, 0xd7, 0x3e, 0x3a, 0x59, 0x2a, 0xbe,
  0x36, 0xe1, 0xc9, 0xbd, 0x0c, 0x17, 0x74, 0xbf, 0x52, 0x28, 0x2d, 0x3e,
  0x47, 0xf4, 0x81, 0xbe, 0x09, 0x08, 0x3f, 0xbf, 0x24, 0x2d, 0xa8, 0xbc,
  0x6b, 0xd6, 0x42, 0x3d, 0xf7, 0x49, 0x14, 0xbf, 0x24, 0x97, 0xa7, 0xbd,
  0x1d, 0x99, 0xdc, 0x3d, 0x1e, 0x4f, 0x6d, 0xbe, 0x84, 0x49, 0x46, 0xbe,
  0x08, 0x93, 0x99, 0x3a, 0x89, 0xc4, 0x21, 0xbf, 0xaf, 0xe1, 0xb2, 0x3d,
  0x86, 0x26, 0x8e, 0xbe, 0x66, 0x13, 0x1f, 0x3e, 0x55, 0x62, 0xb0, 0xbd,
  0xe4, 0x15, 0x36, 0x3e, 0xa1, 0x5e, 0x7b, 0x3d, 0xcb, 0x0a, 0xae, 0xbd,
  0x06, 0xb7, 0x05, 0xbf, 0x60, 0xc3, 0x0e, 0xbe, 0x75, 0xea, 0xb3, 0x3e,
  0x9c, 0x1f, 0x62, 0xbd, 0x2c, 0x17, 0xe5, 0x3e, 0xda, 0x71, 0x2b, 0x3e,
  0x4e, 0xe9, 0xe6, 0xbd, 0xbb, 0xc7, 0xa7, 0x3e, 0x62, 0x8e, 0x8f, 0xbd,
  0xe0, 0x6a, 0x56, 0x3c, 0xf2, 0xff, 0xfe, 0xbb, 0xdb, 0x50, 0x7b, 0xbd,
  0x35, 0x8c, 0x05, 0x3e, 0x27, 0xfc, 0x6b, 0x3e, 0x6d, 0x1f, 0xc1, 0xbd,
  0x54, 0x49, 0x9b, 0x3d, 0x9f, 0xcd, 0x5a, 0x3d, 0x2e, 0x95, 0xdc, 0xbd,
  0x04, 0xf2, 0x8a, 0xbd, 0x3c, 0x90, 0x55, 0xbc, 0xd2, 0x1b, 0x69, 0xbe,
  0xf7, 0x4d, 0x11, 0x3f, 0xb0, 0x1d, 0x04, 0x3e, 0x6c, 0x19, 0xeb, 0xbd,
  0x71, 0x14, 0x4e, 0xbe, 0x7b, 0x54, 0x6e, 0xbe, 0x48, 0xd7, 0x0b, 0xbe,
  0x16, 0x9e, 0x38, 0x3d, 0x2e, 0xa9, 0x68, 0xbe, 0x83, 0xbb, 0x15, 0xbe,
  0x26, 0x74, 0xed, 0x3d, 0x64, 0xf8, 0x17, 0xbe, 0xc1, 0x38, 0xb4, 0xbe,
  0xc7, 0xf1, 0x85, 0xbe, 0x42, 0xf5, 0x61, 0xbd, 0x06, 0xa8, 0x9f, 0xbc,
  0xfe, 0x86, 0x81, 0x3e, 0x52, 0x70, 0x8e, 0x3d, 0xff, 0x03, 0xa6, 0x3d,
  0x4b, 0xf9, 0xb6, 0x3d, 0xda, 0x1d, 0x17, 0xbe, 0x3d, 0x3b, 0x80, 0xbd,
  0x85, 0xb5, 0x18, 0x3e, 0xe8, 0x3b, 0xaa, 0xbd, 0xe2, 0x4f, 0x87, 0xbe,
  0x71, 0x33, 0x96, 0x3e, 0x04, 0x3f, 0x88, 0xbd, 0xe8, 0x2d, 0x42, 0xbe,
  0x20, 0x7b, 0x0e, 0xbf, 0xb5, 0x65, 0x8c, 0xbe, 0xf7, 0x8c, 0xd7, 0xbd,
  0x00, 0x2d, 0x73, 0xbd, 0xdf, 0x35, 0xc5, 0xbe, 0x61, 0xfe, 0xf9, 0x3e,
  0xf8, 0x49, 0x31, 0x3d, 0x5d, 0x9b, 0xd2, 0xbe, 0x78, 0x7e, 0xb4, 0xbe,
  0x48, 0xc3, 0x0f, 0x3e, 0x82, 0xc4, 0x80, 0xbe, 0x1e, 0xef, 0xa7, 0xbd,
  0xc9, 0xf3, 0xde, 0x3c, 0x4b, 0xb3, 0x9b, 0x3e, 0xe4, 0xfb, 0x35, 0xbe,
  0xee, 0xed, 0x01, 0xbd, 0x2c, 0xc2, 0x0f, 0xbe, 0x32, 0xb9, 0xbd, 0x3e,
  0xd4, 0x44, 0x86, 0xbe, 0xf0, 0xcc, 0x97, 0xbe, 0x00, 0x0e, 0x02, 0xbe,
  0xdc, 0x98, 0x32, 0xbd, 0x98, 0x62, 0x13, 0xbe, 0x39, 0xaf, 0x6f, 0x3c,
  0x65, 0x53, 0x5c, 0x3d, 0x30, 0x3d, 0x77, 0xbe, 0xb5, 0x9d, 0x22, 0x3d,
  0xeb, 0x9d, 0x90, 0xbe, 0x6a, 0x92, 0x03, 0x3e, 0x77, 0x13, 0x2e, 0xbe,
  0xdd, 0x79, 0xdb, 0xbd, 0xf8, 0xcf, 0x9c, 0xbd, 0x22, 0x1b, 0xf1, 0xbd,
  0xcb, 0x93, 0xe3, 0xbd, 0xc9, 0xf5, 0x65, 0xbe, 0xf4, 0x86, 0x44, 0xbe,
  0x2a, 0x0b, 0x34, 0xbd, 0x0e, 0x63, 0xa4, 0xbe, 0xe7, 0xd5, 0xcf, 0xbd,
  0xdb, 0x8c, 0xd8, 0xbd, 0x0c, 0x69, 0xba, 0x3d, 0x43, 0xcb, 0xe5, 0x3b,
  0x03, 0x11, 0x4a, 0xbe, 0x2b, 0x57, 0x8e, 0xbe, 0x20, 0xcf, 0xa1, 0x3e,
  0x7f, 0xa2, 0x5b, 0xbe, 0x06, 0x46, 0xad, 0xbd, 0x46, 0xbe, 0x91, 0x3d,
  0x79, 0x26, 0x27, 0xbe, 0x0f, 0x30, 0x45, 0xbd, 0x99, 0xa7, 0xcf, 0xbd,
  0x50, 0xf4, 0xda, 0xbe, 0x35, 0x29, 0x14, 0xbe, 0xbf, 0x8f, 0x1a, 0x3c,
  0x8e, 0xd4, 0xa5, 0xbe, 0xa3, 0x2e, 0x76, 0xbe, 0x6f, 0x81, 0xee, 0xbd,
  0x38, 0xce, 0x07, 0xbe, 0x58, 0x4f, 0x05, 0xbf, 0x64, 0x3f, 0xe5, 0xbd,
  0x51, 0x35, 0x9d, 0xbd, 0x12, 0xdd, 0x90, 0x3e, 0xae, 0x92, 0x3a, 0x3e,
  0xf1, 0x98, 0x66, 0xbe, 0x3d, 0x07, 0xcc, 0x3e, 0x88, 0x86, 0x87, 0x3e,
  0xfa, 0xc7, 0xfb, 0xbd, 0x4b, 0x20, 0x87, 0xbe, 0xd4, 0x43, 0x58, 0xbd,
  0x0b, 0xe7, 0x99, 0xbe, 0xe9, 0xdc, 0x4c, 0x3e, 0x2d, 0xe9, 0x2d, 0xbe,
  0x31, 0xb4, 0xd1, 0x3b, 0xf0, 0x38, 0xb7, 0xbd, 0xb1, 0x7b, 0xf2, 0xbc,
  0x7c, 0xe0, 0x32, 0xbe, 0x1c, 0xd7, 0x4d, 0x3d, 0x78, 0x09, 0xe2, 0xbd,
  0xd2, 0x6d, 0x48, 0xbb, 0xae, 0x78, 0x16, 0xbc, 0x82, 0xe8, 0x12, 0x3e,
  0xb1, 0xe5, 0x22, 0xbc, 0x34, 0x7b, 0xe6, 0xbb, 0xf5, 0x9f, 0x86, 0x3c,
  0x6c, 0x95, 0x37, 0xbe, 0xe6, 0x92, 0x54, 0x3e, 0xf4, 0x05, 0x59, 0x3d,
  0x69, 0x3c, 0x8e, 0xbe, 0x33, 0x3b, 0xea, 0xbe, 0x35, 0xa4, 0x04, 0xbe,
  0x2b, 0x8a, 0x48, 0xbe, 0x0b, 0x53, 0xbc, 0x3b, 0x34, 0xf3, 0x88, 0xbc,
  0xe5, 0xb4, 0x14, 0x3f, 0x3c, 0xf1, 0x2c, 0xbe, 0x1d, 0xb2, 0x0c, 0x3e,
  0x03, 0x4b, 0x57, 0x3d, 0xa1, 0x59, 0x27, 0xbe, 0x6e, 0x25, 0xba, 0xbd,
  0x9a, 0x99, 0x5f, 0x3d, 0x21, 0x3f, 0xdb, 0x3d, 0xca, 0x05, 0x0a, 0xbe,
  0xc8, 0x93, 0x39, 0x3d, 0x52, 0x9e, 0x06, 0x3e, 0xe7, 0x9e, 0x8e, 0x3e,
  0x9c, 0x45, 0x4c, 0xbe, 0x45, 0xb4, 0x5c, 0xbd, 0x64, 0x17, 0xfa, 0x3c,
  0x5f, 0xf1, 0x2b, 0xbe, 0x42, 0x04, 0x5d, 0xbe, 0xe8, 0xab, 0x79, 0xbe,
  0x42, 0xb7, 0x48, 0x3c, 0xf2, 0x8b, 0xc3, 0x3d, 0xe4, 0xf2, 0x74, 0xbe,
  0x4b, 0xec, 0x28, 0xbd, 0x30, 0x87, 0x06, 0xbc, 0x7b, 0x82, 0x96, 0xbe,
  0x0a, 0x87, 0x45, 0x3e, 0x39, 0xfe, 0x08, 0x3f, 0xa9, 0x87, 0x9c, 0xbe,
  0x89, 0x25, 0x89, 0x3d, 0x99, 0x62, 0xcf, 0x3d, 0xe3, 0x13, 0x3f, 0xbe,
  0xc0, 0xe5, 0xa4, 0xbd, 0x04, 0x8f, 0x9e, 0x3c, 0x95, 0xd8, 0x61, 0x3e,
  0xc6, 0x37, 0x05, 0xbe, 0xb1, 0x5b, 0x09, 0xbe, 0xef, 0xcf, 0x5f, 0x3c,
  0x20, 0x82, 0x43, 0x3e, 0x66, 0x07, 0x82, 0xbc, 0x82, 0x6a, 0xa0, 0xbd,
  0x37, 0x61, 0xa6, 0xbd, 0x65, 0x19, 0xdd, 0xbd, 0xc7, 0x39, 0x41, 0x3e,
  0xb7, 0x23, 0x87, 0xbe, 0x10, 0xff, 0x0a, 0x3c, 0x56, 0x17, 0x00, 0x3e,
  0x5b, 0x69, 0xce, 0xbd, 0x66, 0xf2, 0x1b, 0xbe, 0xb1, 0x64, 0x0f, 0x3e,
  0x5a, 0x16, 0xf7, 0xbc, 0xcf, 0x8d, 0x04, 0x3e, 0x1f, 0xa3, 0x7d, 0xbd,
  0x56, 0xb2, 0xd7, 0xbc, 0xe9, 0x53, 0x89, 0xbe, 0xbd, 0xc2, 0x9c, 0xbe,
  0xe6, 0xfd, 0xc5, 0xbe, 0x3d, 0x7c, 0x04, 0xbd, 0x53, 0x40, 0x20, 0xbd,
  0xc1, 0x39, 0x2e, 0xbe, 0x2b, 0x22, 0xe8, 0xbd, 0x94, 0xc4, 0xee, 0x3e,
  0x85, 0x39, 0x8d, 0x3d, 0x0a, 0x50, 0x8b, 0xbd, 0x54, 0x95, 0xa3, 0xbe,
  0xd1, 0xe3, 0x17, 0xbe, 0x72, 0x8c, 0xe7, 0x3e, 0x85, 0xf6, 0xe6, 0x3d,
  0x89, 0x4e, 0x11, 0xbe, 0x6c, 0x57, 0xd2, 0x3e, 0x4a, 0xa0, 0x0f, 0x3d,
  0x6e, 0xd6, 0x5f, 0xbe, 0xe0, 0xae, 0xa3, 0xbe, 0xb3, 0xff, 0xad, 0xbd,
  0x45, 0xd9, 0xa3, 0x3a, 0x30, 0xb1, 0x89, 0x3e, 0xdb, 0x12, 0xb5, 0x3d,
  0x5a, 0x4a, 0xae, 0xbb, 0x7e, 0x2f, 0xd6, 0xbc, 0x57, 0xef, 0x44, 0xbe,
  0x54, 0xe9, 0xbb, 0xbe, 0x25, 0x88, 0x39, 0xbe, 0x79, 0x9f, 0x85, 0x3e,
  0x5e, 0x4d, 0x94, 0x3e, 0xde, 0xba, 0x48, 0x3c, 0x47, 0x3e, 0xa2, 0x3e,
  0x4a, 0xb0, 0x63, 0x3d, 0x9a, 0xd9, 0xd8, 0xbd, 0xe3, 0xa7, 0x49, 0xbe,
  0xd5, 0xb7, 0xa6, 0xbe, 0x95, 0x3f, 0x86, 0xbe, 0xa5, 0x60, 0x4b, 0x3e,
  0x93, 0x6d, 0x9e, 0xbe, 0x4e, 0xdb, 0x8e, 0xbe, 0x54, 0xda, 0x0b, 0xbc,
  0x92, 0xcd, 0x95, 0xbe, 0x31, 0xda, 0x5e, 0xbe, 0x3c, 0x01, 0xda, 0xbd,
  0xf0, 0xfd, 0x29, 0x3e, 0xd2, 0xa8, 0x91, 0x3d, 0xf5, 0x23, 0xa3, 0xbe,
  0xff, 0x3f, 0x24, 0xbd, 0xec, 0x3c, 0x8d, 0x3d, 0x01, 0x38, 0x24, 0xbe,
  0x50, 0xdb, 0x73, 0xbe, 0x90, 0x62, 0x9f, 0x3d, 0xce, 0xdf, 0x4c, 0xbe,
  0x29, 0x8f, 0x7c, 0x3d, 0x38, 0xa4, 0x03, 0x3e, 0x5b, 0x26, 0x86, 0x3c,
  0x12, 0xcd, 0x20, 0x3e, 0x2f, 0x02, 0x7a, 0xbe, 0xac, 0x65, 0x97, 0xbe,
  0xbc, 0x8f, 0xf3, 0xbd, 0x88, 0xb9, 0x11, 0xbe, 0xd0, 0xd3, 0xeb, 0xbd,
  0xa0, 0x64, 0x03, 0xbe, 0xe6, 0x43, 0x2e, 0xbd, 0xf6, 0xe2, 0xa9, 0xbd,
  0x72, 0x26, 0x87, 0xbe, 0x0f, 0x0c, 0x9f, 0xbe, 0x2c, 0x5b, 0x75, 0xbd,
  0x73, 0xa9, 0x13, 0x3e, 0xbd, 0x15, 0x8e, 0xbc, 0xd1, 0xd6, 0xa0, 0xbe,
  0x24, 0x5f, 0x4b, 0x3e, 0xc9, 0xd8, 0xa4, 0xbb, 0x8a, 0x6a, 0xfa, 0xbd,
  0x03, 0x8f, 0xdb, 0xbe, 0x56, 0xa6, 0x8b, 0x3d, 0x61, 0x3a, 0x41, 0x3e,
  0x9d, 0x0b, 0x14, 0x3c, 0xe2, 0x9f, 0x48, 0x3e, 0xed, 0xcf, 0xbc, 0x3d,
  0x8d, 0xd5, 0x75, 0xbd, 0x46, 0xc4, 0x84, 0xbe, 0xa4, 0xf5, 0x10, 0xbe,
  0x21, 0x8f, 0x55, 0xbe, 0x28, 0x74, 0xda, 0x3e, 0xfb, 0x05, 0x40, 0x3d,
  0x36, 0xa3, 0xc0, 0x3c, 0xea, 0x08, 0x85, 0xbe, 0x53, 0x79, 0x4e, 0xbe,
  0x9a, 0x80, 0x68, 0xbe, 0xe8, 0x78, 0x74, 0xbe, 0x98, 0x75, 0xe7, 0xbd,
  0xdd, 0xc9, 0x9f, 0x3e, 0x9b, 0x8c, 0xdc, 0x3d, 0x72, 0x44, 0x0c, 0x3e,
  0x0b, 0x5c, 0x13, 0x3e, 0x64, 0x32, 0x65, 0x3d, 0xea, 0x1a, 0xcd, 0xbe,
  0x4b, 0xf0, 0x8c, 0xbd, 0x36, 0x03, 0x11, 0xbc, 0x81, 0x73, 0xf0, 0xbd,
  0xb3, 0xd4, 0xd3, 0xbd, 0xc7, 0xf2, 0x98, 0x3d, 0xbf, 0x21, 0x06, 0x3d,
  0x07, 0xc5, 0x1f, 0xbe, 0x3c, 0xce, 0xc7, 0xbd, 0xda, 0xdf, 0x21, 0xbd,
  0x7a, 0x50, 0x76, 0xbe, 0x66, 0x41, 0x38, 0xbe, 0x69, 0xdd, 0x5d, 0xbe,
  0x28, 0xd9, 0x8d, 0x3d, 0x19, 0x91, 0x03, 0x3d, 0x39, 0x4e, 0x96, 0xbe,
  0x40, 0x06, 0xaf, 0xbc, 0x13, 0x93, 0xc0, 0xbd, 0xb0, 0xe3, 0xd1, 0xbd,
  0xc8, 0x2a, 0x26, 0x3e, 0xb1, 0xe3, 0x07, 0xbe, 0x8b, 0xfc, 0x5c, 0xbd,
  0xda, 0xac, 0xa2, 0x3d, 0x56, 0x4a, 0xe5, 0xbd, 0x7e, 0xa2, 0x3c, 0x3d,
  0xb6, 0x34, 0xb9, 0x3e, 0xcd, 0xe2, 0xf2, 0xbd, 0x51, 0xa4, 0xee, 0xbb,
  0x50, 0x1f, 0xd6, 0xbd, 0xf1, 0xd5, 0x71, 0xbc, 0xdd, 0x35, 0x62, 0xbd,
  0xf7, 0x33, 0x9b, 0x3d, 0x1d, 0xec, 0x75, 0x3e, 0x90, 0x19, 0x4c, 0xbe,
  0xf9, 0x6e, 0x99, 0xbe, 0x2d, 0x44, 0x62, 0x3d, 0x11, 0xf9, 0x30, 0xbd,
  0x46, 0x0c, 0xc6, 0xbe, 0x1d, 0x89, 0x84, 0x3c, 0x05, 0x90, 0xfc, 0x3d,
  0x69, 0x28, 0x6d, 0xbe, 0x86, 0x2f, 0x16, 0xbe, 0xc8, 0x85, 0xc0, 0x3d,
  0xa2, 0x37, 0xd2, 0x3d, 0x93, 0x29, 0x30, 0xbe, 0x81, 0x06, 0x9f, 0xbd,
  0xde, 0xeb, 0xb9, 0xbe, 0x25, 0xdc, 0x51, 0xbe, 0x97, 0x21, 0xa2, 0xbe,
  0x47, 0x14, 0x7e, 0xbe, 0x11, 0x6d, 0x69, 0x3e, 0x2b, 0x1d, 0xc1, 0xbd,
  0x85, 0x86, 0x8a, 0xbd, 0xa4, 0xdd, 0x84, 0x3c, 0xe0, 0x00, 0x63, 0xbe,
  0x88, 0x3d, 0xa3, 0x3c, 0x86, 0x56, 0xab, 0xbe, 0x72, 0x21, 0x16, 0xbe,
  0x2d, 0x2e, 0xcd, 0xbd, 0xff, 0xbe, 0x86, 0x3e, 0xf0, 0x74, 0xd8, 0xbd,
  0x0b, 0xd4, 0xa7, 0x3d, 0xb7, 0xd3, 0x52, 0xbe, 0x92, 0x45, 0x17, 0xbd,
  0x20, 0x61, 0xb7, 0xbd, 0xfe, 0x50, 0x03, 0xbd, 0x6c, 0x0e, 0x31, 0xbf,
  0xa4, 0x2b, 0x95, 0x3e, 0x16, 0x04, 0x05, 0xbe, 0xf0, 0x24, 0x15, 0xbf,
  0xf8, 0x88, 0xa2, 0xbe, 0x24, 0xf6, 0x73, 0x3e, 0x2e, 0x0d, 0xb0, 0xbe,
  0x6b, 0x5a, 0x03, 0x3b, 0x2e, 0x0e, 0x25, 0xbf, 0x05, 0x7f, 0xc5, 0x3d,
  0x96, 0xce, 0x02, 0xbf, 0xbc, 0xec, 0xf0, 0xbe, 0xbe, 0xc0, 0xc4, 0xbe,
  0xb7, 0x21, 0x5b, 0x3c, 0xcc, 0x4f, 0xa1, 0xbe, 0x29, 0xfc, 0x2a, 0xbc,
  0x7a, 0xa9, 0x90, 0x3e, 0x28, 0x34, 0x07, 0x3f, 0x0a, 0x02, 0xaa, 0xbd,
  0x58, 0x6a, 0x84, 0x3d, 0x50, 0x16, 0xe7, 0xbd, 0xeb, 0xbc, 0x49, 0xbe,
  0xb3, 0x72, 0x86, 0x3d, 0xd2, 0xcf, 0x80, 0xbd, 0x06, 0xfe, 0x36, 0x3e,
  0xec, 0x33, 0x9d, 0xbe, 0x22, 0xd0, 0xd2, 0xbb, 0x48, 0x95, 0x0b, 0x3e,
  0xad, 0x0e, 0xa2, 0xbe, 0x23, 0xf1, 0x57, 0xbd, 0x20, 0xd3, 0x42, 0x3e,
  0xc6, 0xde, 0xff, 0xff, 0x10, 0x00, 0x00, 0x00, 0x08, 0x00, 0x00, 0x00,
  0x1c, 0x00, 0x00, 0x00, 0x38, 0x00, 0x00, 0x00, 0x04, 0x00, 0x00, 0x00,
  0x10, 0x00, 0x00, 0x00, 0x04, 0x00, 0x00, 0x00, 0x01, 0x00, 0x00, 0x00,
  0x08, 0x00, 0x00, 0x00, 0x1a, 0x00, 0x00, 0x00, 0x73, 0x65, 0x71, 0x75,
  0x65, 0x6e, 0x74, 0x69, 0x61, 0x6c, 0x2f, 0x63, 0x6f, 0x6e, 0x76, 0x32,
  0x64, 0x5f, 0x31, 0x2f, 0x43, 0x6f, 0x6e, 0x76, 0x32, 0x44, 0x00, 0x00,
  0xc0, 0xde, 0xff, 0xff, 0xb6, 0xdf, 0xff, 0xff, 0x04, 0x00, 0x00, 0x00,
  0x80, 0x01, 0x00, 0x00, 0x33, 0xed, 0x49, 0x3c, 0xed, 0x31, 0x17, 0x3e,
  0xaa, 0x98, 0x7c, 0xbc, 0xb3, 0x9c, 0xe3, 0xbc, 0xaa, 0x1e, 0x4c, 0x3c,
  0x8d, 0x31, 0xc7, 0xbc, 0xe2, 0x91, 0x0a, 0x3d, 0xd8, 0xd9, 0x11, 0xbe,
  0x3a, 0x53, 0xd3, 0x3a, 0xa8, 0xee, 0xa7, 0xbd, 0xdc, 0xde, 0x88, 0x3d,
  0x17, 0x11, 0x91, 0xbd, 0x76, 0x25, 0x83, 0x3b, 0x4f, 0xa6, 0x17, 0x3d,
  0x84, 0xb1, 0xe0, 0x3c, 0xf0, 0xab, 0x0c, 0xbd, 0x63, 0x1e, 0x8d, 0xbe,
  0x21, 0xa3, 0xd5, 0xbd, 0x50, 0x71, 0x84, 0xbd, 0x55, 0x2b, 0x87, 0xbe,
  0xf6, 0xa6, 0xc2, 0xbc, 0x5e, 0xff, 0x88, 0xbd, 0x91, 0x37, 0x29, 0xbe,
  0xc5, 0x19, 0x54, 0x3c, 0x45, 0x3e, 0x32, 0x3f, 0x67, 0xc3, 0x72, 0xbe,
  0xd4, 0xc7, 0x4c, 0x3c, 0xc9, 0x20, 0x3f, 0xbe, 0xa7, 0x5e, 0x3b, 0xbe,
  0xbd, 0x80, 0xfc, 0x3d, 0x92, 0xcd, 0xd0, 0xbe, 0x38, 0x10, 0xab, 0x3d,
  0xd6, 0xaf, 0x3b, 0xbe, 0xa9, 0x93, 0x1e, 0xbe, 0x32, 0x82, 0x87, 0x3e,
  0xd1, 0x07, 0xa7, 0xbd, 0x19, 0x7f, 0x00, 0x3e, 0x73, 0x76, 0x37, 0xbe,
  0x72, 0xeb, 0xa4, 0x3a, 0xac, 0x42, 0x61, 0xbc, 0x27, 0x04, 0x87, 0x3e,
  0x91, 0x4a, 0xd1, 0x3c, 0xc0, 0x14, 0x9c, 0x3e, 0x1b, 0x2b, 0xb9, 0xbd,
  0x76, 0x12, 0x18, 0xbe, 0x51, 0x99, 0x14, 0x3e, 0xdc, 0x59, 0x41, 0xbd,
  0x7c, 0xfb, 0xc3, 0xbe, 0x73, 0x57, 0x77, 0xbe, 0x1f, 0x97, 0x84, 0xbd,
  0x04, 0x13, 0x22, 0xbc, 0xfd, 0x06, 0x35, 0xbb, 0x9b, 0x17, 0x72, 0xbe,
  0x7a, 0x74, 0x57, 0xbc, 0x28, 0xd1, 0x26, 0xbe, 0xec, 0xb3, 0xe2, 0x3d,
  0xaa, 0xc6, 0x67, 0xbe, 0x70, 0xc5, 0x18, 0xbe, 0x12, 0x3a, 0xfe, 0xbc,
  0x60, 0xbd, 0xa1, 0x3e, 0x6f, 0x35, 0xb0, 0x3d, 0xef, 0xd4, 0x18, 0xbe,
  0x66, 0x92, 0xb0, 0xbd, 0x10, 0x3f, 0xa4, 0xbe, 0x5f, 0x3a, 0x1d, 0x3e,
  0xfd, 0xe3, 0x07, 0xbf, 0x54, 0xe1, 0x82, 0xbe, 0xfc, 0xdb, 0x7e, 0xbe,
  0xa0, 0xd5, 0xfe, 0x3c, 0x06, 0x14, 0xde, 0xbe, 0xa3, 0x9b, 0x88, 0x3d,
  0x63, 0x50, 0x25, 0x3e, 0xcb, 0x80, 0x5f, 0x3d, 0xd5, 0x90, 0x19, 0xbe,
  0xa8, 0x8b, 0x99, 0xba, 0x19, 0x07, 0x8d, 0x3e, 0x22, 0x59, 0x02, 0xbe,
  0xc7, 0x37, 0xcd, 0xbe, 0xc7, 0xe5, 0xa0, 0xbd, 0xe3, 0x93, 0xf7, 0x3c,
  0xa0, 0x82, 0x30, 0x3c, 0xea, 0x26, 0x9c, 0x3e, 0xfa, 0x9b, 0xcb, 0xbe,
  0x57, 0x81, 0x48, 0x3e, 0x20, 0x6a, 0x05, 0xbe, 0x84, 0xf3, 0x8e, 0x3d,
  0xe1, 0x6d, 0x53, 0x3e, 0xa3, 0x6f, 0x36, 0xbe, 0x2d, 0xeb, 0x63, 0xbd,
  0xff, 0xf1, 0x96, 0x3d, 0xed, 0x6b, 0x0f, 0xbe, 0x04, 0xa6, 0x55, 0x3d,
  0x8c, 0xed, 0xba, 0xbc, 0xc9, 0x00, 0x64, 0xbe, 0x02, 0xd9, 0x14, 0xbe,
  0xd5, 0xfc, 0xef, 0xbd, 0x9e, 0xe0, 0xff, 0xff, 0x10, 0x00, 0x00, 0x00,
  0x07, 0x00, 0x00, 0x00, 0x1c, 0x00, 0x00, 0x00, 0x38, 0x00, 0x00, 0x00,
  0x04, 0x00, 0x00, 0x00, 0x08, 0x00, 0x00, 0x00, 0x04, 0x00, 0x00, 0x00,
  0x03, 0x00, 0x00, 0x00, 0x01, 0x00, 0x00, 0x00, 0x18, 0x00, 0x00, 0x00,
  0x73, 0x65, 0x71, 0x75, 0x65, 0x6e, 0x74, 0x69, 0x61, 0x6c, 0x2f, 0x63,
  0x6f, 0x6e, 0x76, 0x32, 0x64, 0x2f, 0x43, 0x6f, 0x6e, 0x76, 0x32, 0x44,
  0x00, 0x00, 0x00, 0x00, 0x98, 0xe0, 0xff, 0xff, 0x8e, 0xe1, 0xff, 0xff,
  0x04, 0x00, 0x00, 0x00, 0x00, 0x01, 0x00, 0x00, 0x91, 0x98, 0x79, 0x3e,
  0xe8, 0xd9, 0xd4, 0x3d, 0xba, 0x72, 0xe4, 0x3d, 0xc7, 0x95, 0x8b, 0x3d,
  0x08, 0x0d, 0x3e, 0xbe, 0x36, 0xf5, 0xfe, 0xbd, 0x68, 0x82, 0xbb, 0x3d,
  0xb3, 0xf1, 0x86, 0xbe, 0x2b, 0x1a, 0x19, 0x3d, 0xaf, 0xb5, 0x13, 0xbe,
  0x67, 0x00, 0x39, 0x3e, 0x04, 0xbd, 0x7e, 0x3d, 0xd6, 0xff, 0x08, 0xbe,
  0xce, 0x63, 0x6b, 0xbc, 0x6b, 0xb2, 0x91, 0xbe, 0x20, 0x8a, 0x84, 0x3c,
  0x8f, 0xd9, 0x26, 0x3e, 0xfd, 0xbc, 0x43, 0xbe, 0x10, 0x10, 0xd0, 0x3d,
  0x01, 0x69, 0xad, 0x3d, 0x76, 0x57, 0x88, 0xbe, 0x9f, 0x88, 0x86, 0xbb,
  0x62, 0xb2, 0x50, 0x3e, 0x73, 0x53, 0x89, 0xbe, 0x92, 0xb3, 0x80, 0xbd,
  0x23, 0x83, 0xdc, 0xbd, 0x35, 0x5c, 0x40, 0x3e, 0x64, 0x54, 0x0d, 0xba,
  0x04, 0x1e, 0x4d, 0xbe, 0x63, 0xc7, 0x9a, 0x3d, 0x31, 0xa3, 0x4e, 0xbe,
  0xe0, 0x4a, 0x69, 0xbd, 0x74, 0xac, 0x91, 0xbe, 0x68, 0x6c, 0xdb, 0xbd,
  0xea, 0x34, 0x3f, 0x3e, 0x19, 0x4e, 0x8e, 0x3d, 0x38, 0xd0, 0x53, 0xbe,
  0x26, 0xad, 0xdb, 0xba, 0xde, 0x9f, 0xe1, 0x3d, 0xd2, 0xfd, 0x71, 0xbe,
  0xbd, 0x58, 0x46, 0x3c, 0x11, 0x19, 0x10, 0xbe, 0xc3, 0x31, 0x9b, 0x3d,
  0xd8, 0xef, 0x5f, 0xbd, 0x5b, 0x7d, 0x5c, 0xbe, 0xf1, 0x51, 0x12, 0x3e,
  0x26, 0xd7, 0xe1, 0xbd, 0x95, 0xda, 0x11, 0xbe, 0x06, 0xd3, 0x05, 0x3e,
  0xd9, 0x32, 0xc5, 0xbc, 0xbc, 0x10, 0x3d, 0x3e, 0x27, 0xf9, 0xea, 0x3d,
  0x66, 0xe4, 0x80, 0xbe, 0x9d, 0x45, 0x05, 0x3d, 0x91, 0xe1, 0x7e, 0x3e,
  0x99, 0x57, 0x02, 0xbe, 0xb7, 0xe1, 0xa0, 0xbe, 0x0e, 0xe8, 0x30, 0xbd,
  0x36, 0x66, 0xf9, 0xbd, 0x5e, 0x46, 0x79, 0xbd, 0x51, 0xc8, 0x03, 0xbe,
  0x31, 0xb6, 0x10, 0xbb, 0x2c, 0x5b, 0xab, 0xbe, 0x41, 0x61, 0x88, 0xbd,
  0xf6, 0xe1, 0xff, 0xff, 0x10, 0x00, 0x00, 0x00, 0x06, 0x00, 0x00, 0x00,
  0x14, 0x00, 0x00, 0x00, 0x30, 0x00, 0x00, 0x00, 0x02, 0x00, 0x00, 0x00,
  0x04, 0x00, 0x00, 0x00, 0x10, 0x00, 0x00, 0x00, 0x19, 0x00, 0x00, 0x00,
  0x73, 0x65, 0x71, 0x75, 0x65, 0x6e, 0x74, 0x69, 0x61, 0x6c, 0x2f, 0x64,
  0x65, 0x6e, 0x73, 0x65, 0x5f, 0x31, 0x2f, 0x4d, 0x61, 0x74, 0x4d, 0x75,
  0x6c, 0x00, 0x00, 0x00, 0xe8, 0xe1, 0xff, 0xff, 0xde, 0xe2, 0xff, 0xff,
  0x04, 0x00, 0x00, 0x00, 0x00, 0x1c, 0x00, 0x00, 0x96, 0x3c, 0x84, 0x3c,
  0xb3, 0x8a, 0xa7, 0xbd, 0x4b, 0x9c, 0xaf, 0xbe, 0xf1, 0x98, 0x0f, 0x3c,
  0x2b, 0xdb, 0x80, 0xbd, 0xaa, 0xa7, 0x08, 0xbe, 0xa4, 0xe1, 0x13, 0xbd,
  0xbf, 0x7c, 0x3d, 0xbd, 0x39, 0x77, 0x8d, 0xbe, 0xf2, 0xe5, 0x06, 0xbe,
  0xfd, 0x30, 0x2d, 0x3d, 0x79, 0xf1, 0x1d, 0xbe, 0xaf, 0x1b, 0x77, 0xbe,
  0xe9, 0x38, 0x93, 0xbe, 0x41, 0x84, 0x3c, 0xbe, 0x83, 0xf7, 0x0c, 0xbe,
  0x89, 0x06, 0x09, 0xbd, 0xc3, 0xaf, 0x0f, 0x3d, 0x23, 0x1a, 0x2a, 0xbe,
  0xa0, 0xf2, 0xb7, 0xbd, 0x45, 0xcd, 0x81, 0xbe, 0x1a, 0x21, 0x6c, 0xbe,
  0x30, 0x1f, 0x55, 0x3d, 0x76, 0x99, 0xf7, 0x3d, 0xa0, 0xa0, 0x1b, 0xbd,
  0x98, 0xac, 0x2e, 0xbe, 0xd0, 0xcd, 0x4f, 0xbe, 0x9d, 0x12, 0x29, 0x3d,
  0x9d, 0x86, 0xf4, 0xbd, 0x2d, 0x1b, 0x7b, 0xbe, 0x74, 0x02, 0x33, 0xbe,
  0x3b, 0x03, 0xb5, 0x3c, 0x19, 0x3b, 0x1a, 0x3c, 0x7a, 0x90, 0x0b, 0xbe,
  0x38, 0xc7, 0x87, 0xbe, 0x59, 0x9d, 0x10, 0x3d, 0x91, 0x99, 0xf2, 0xbd,
  0xfb, 0x07, 0xa3, 0xbd, 0x71, 0x7a, 0x3e, 0x3d, 0x55, 0x35, 0xae, 0x3d,
  0x9d, 0x82, 0x78, 0xbe, 0xea, 0x9f, 0x8a, 0xbe, 0x40, 0x50, 0x1a, 0xbe,
  0x77, 0xfe, 0x76, 0xbc, 0x6f, 0xd5, 0x18, 0xbe, 0xea, 0x19, 0xf5, 0xbd,
  0xd7, 0x4d, 0xa8, 0xbd, 0x53, 0xf7, 0x11, 0xbe, 0x0c, 0x00, 0xbc, 0x3d,
  0x42, 0xf6, 0xf4, 0xbd, 0x65, 0x9f, 0x00, 0xbd, 0x73, 0x54, 0xd4, 0xbb,
  0x4b, 0x90, 0x0c, 0xbe, 0xde, 0xd9, 0x5a, 0x3d, 0x71, 0x8f, 0xcf, 0xbd,
  0x95, 0x9f, 0xad, 0xbd, 0x57, 0x5b, 0x78, 0xbd, 0xae, 0x7c, 0x21, 0xbd,
  0xf8, 0xf8, 0xee, 0xbd, 0x65, 0x7b, 0xc4, 0x3c, 0x75, 0x3a, 0x1c, 0xbd,
  0x60, 0x87, 0x43, 0xbd, 0x3e, 0xe7, 0x3d, 0xbe, 0xaa, 0x2d, 0x41, 0x3e,
  0x9b, 0xc2, 0x19, 0x3e, 0xb8, 0xe2, 0x01, 0xbe, 0x16, 0x2f, 0x86, 0x3d,
  0x3e, 0x5c, 0xad, 0x3c, 0x38, 0xdd, 0x81, 0xbd, 0x1f, 0x51, 0x65, 0xbd,
  0x8a, 0x41, 0x91, 0xbd, 0x77, 0xcd, 0x9f, 0x3d, 0x3b, 0xa1, 0x7b, 0xbd,
  0x23, 0x9e, 0x21, 0xbe, 0xd0, 0x55, 0x63, 0xbd, 0x8e, 0x31, 0x4a, 0xbd,
  0x44, 0x68, 0x99, 0xbd, 0xee, 0x2e, 0x27, 0xbd, 0xe2, 0xbb, 0x98, 0x3d,
  0x7a, 0x84, 0xc9, 0x3d, 0xd1, 0xf4, 0x6a, 0x3e, 0x5c, 0xdd, 0x4d, 0x3c,
  0xdf, 0xd4, 0x18, 0xbd, 0x53, 0x21, 0x04, 0x3e, 0x56, 0x8b, 0x17, 0xbd,
  0x69, 0x54, 0x4a, 0xbe, 0x7f, 0xd8, 0x22, 0x3e, 0xb2, 0xe2, 0xec, 0xbd,
  0xc4, 0xca, 0x0e, 0xbd, 0x74, 0xcc, 0x22, 0xbe, 0xab, 0xdc, 0x8b, 0x3d,
  0xee, 0xb1, 0x2e, 0x3d, 0xb9, 0xa3, 0x92, 0xbb, 0xd8, 0x4d, 0x03, 0xbe,
  0xe6, 0xc3, 0xe2, 0x3d, 0x75, 0x23, 0x0c, 0x3e, 0xe0, 0xc7, 0x3b, 0x3d,
  0xb7, 0x36, 0x1d, 0xbd, 0xc7, 0xc4, 0x4a, 0xbd, 0x06, 0x35, 0x4d, 0x3e,
  0xaf, 0x97, 0x2f, 0xbe, 0xbf, 0xbb, 0x91, 0xbc, 0x74, 0xd4, 0x02, 0xbd,
  0xa5, 0x83, 0x02, 0xbe, 0xa0, 0x76, 0x78, 0xbd, 0x9c, 0xc6, 0xf2, 0xbd,
  0x85, 0x2a, 0x16, 0x3e, 0xb8, 0xfd, 0x81, 0x3c, 0x61, 0xe5, 0xb2, 0xbd,
  0x74, 0x3d, 0xd5, 0xbd, 0x95, 0x8a, 0x2f, 0xbe, 0xe5, 0xdf, 0xb4, 0x3d,
  0x08, 0xb3, 0x72, 0x3d, 0xe3, 0x3c, 0x7a, 0x3e, 0x88, 0x8b, 0xff, 0xbd,
  0x85, 0x05, 0x67, 0xbe, 0x83, 0xca, 0xf3, 0xbb, 0x91, 0xf3, 0x84, 0xbe,
  0xc4, 0x5f, 0x1d, 0x3e, 0x00, 0x6f, 0x19, 0xbe, 0x83, 0xba, 0x50, 0xbe,
  0x23, 0xe7, 0x9f, 0xbd, 0x5c, 0x86, 0x38, 0xbe, 0xce, 0x52, 0xb2, 0x3c,
  0x9f, 0x2e, 0xc8, 0xbd, 0x6c, 0xe1, 0x4e, 0xbe, 0xd0, 0x88, 0x04, 0x40,
  0xf0, 0x31, 0x42, 0x3c, 0x12, 0x53, 0x1c, 0xbe, 0xdb, 0xca, 0xab, 0x3e,
  0x2f, 0xa7, 0x60, 0xbe, 0xc7, 0x93, 0x01, 0x3e, 0x70, 0xf3, 0x98, 0xbe,
  0x85, 0x61, 0x94, 0xbe, 0x42, 0x93, 0xee, 0x3e, 0xd9, 0xcf, 0x03, 0x3d,
  0xf3, 0xd1, 0xa7, 0xbc, 0x75, 0x79, 0xdb, 0xbd, 0x28, 0xde, 0x46, 0xbe,
  0x63, 0xab, 0x0d, 0x3e, 0x23, 0x5b, 0x08, 0xbe, 0x0c, 0x1e, 0x6a, 0xbe,
  0x4c, 0x03, 0x9c, 0x3f, 0x5b, 0x8b, 0x6a, 0xbd, 0x21, 0x63, 0x7e, 0xbe,
  0xfc, 0x81, 0x12, 0x3e, 0x04, 0x08, 0xe7, 0xbd, 0x44, 0x0d, 0x28, 0xbd,
  0xce, 0x19, 0xfc, 0x3b, 0x51, 0xb1, 0xa9, 0x3c, 0x2e, 0x40, 0xb7, 0x3e,
  0x70, 0x68, 0x2c, 0xbe, 0x7c, 0x9a, 0x3c, 0x3d, 0x07, 0xaf, 0xbe, 0x3d,
  0x13, 0xbe, 0x5b, 0x3d, 0xc4, 0x8a, 0x88, 0xbd, 0x21, 0x43, 0x40, 0xbe,
  0x61, 0xf5, 0x82, 0xbe, 0xcf, 0x27, 0x01, 0x40, 0x16, 0xb3, 0xd8, 0x3d,
  0xd0, 0x87, 0x17, 0xbe, 0x80, 0xd5, 0x64, 0x3e, 0x0d, 0xae, 0xbb, 0xbd,
  0x3a, 0x35, 0x23, 0x3e, 0xe4, 0x8a, 0xb6, 0x3d, 0x7c, 0x70, 0xfe, 0xbd,
  0x61, 0x62, 0x2e, 0x3d, 0x3c, 0xbb, 0x1d, 0xbe, 0x64, 0x30, 0x99, 0x3d,
  0xff, 0x5f, 0x18, 0xbe, 0x1e, 0x9a, 0xd2, 0xbd, 0x78, 0x1d, 0xf3, 0x3d,
  0xbb, 0x7a, 0x01, 0x3e, 0x67, 0x0f, 0x26, 0xbe, 0xe6, 0x23, 0x04, 0x40,
  0xb1, 0xd9, 0x19, 0x3e, 0x0b, 0x46, 0x9b, 0xbd, 0x09, 0x30, 0xb5, 0x3e,
  0x43, 0xcb, 0xba, 0xb7, 0x7b, 0x66, 0x55, 0xbe, 0x3e, 0x88, 0x68, 0xbb,
  0xa6, 0x4a, 0x68, 0x3d, 0x9f, 0x59, 0x82, 0x3e, 0x01, 0xb3, 0x99, 0x3d,
  0xc6, 0xce, 0x14, 0xbe, 0x4d, 0x69, 0xd4, 0xbd, 0xcd, 0x94, 0x91, 0xbb,
  0x16, 0xb3, 0x67, 0xbc, 0x15, 0x1b, 0x8a, 0xbd, 0x1b, 0x79, 0x48, 0xbd,
  0x13, 0x13, 0xed, 0x3f, 0x6d, 0x2a, 0x40, 0x3e, 0x3e, 0xe2, 0x31, 0x3d,
  0x97, 0x03, 0x5c, 0x3e, 0xfe, 0x27, 0x7b, 0xbd, 0x23, 0x61, 0x41, 0xbe,
  0xdb, 0xba, 0x65, 0xbe, 0xeb, 0x1c, 0x78, 0xbe, 0x4f, 0x02, 0x68, 0x3e,
  0xc6, 0x67, 0x53, 0xbe, 0x3c, 0xe8, 0x76, 0xbe, 0x07, 0xa7, 0x79, 0xbe,
  0x30, 0x33, 0x90, 0x3d, 0xc8, 0x47, 0x80, 0x3d, 0xa2, 0x84, 0x03, 0x3d,
  0xa5, 0x20, 0x93, 0xbe, 0x0c, 0x01, 0xf9, 0x3f, 0x55, 0x5c, 0x04, 0xbe,
  0x3d, 0x0e, 0x4c, 0xbe, 0x80, 0x16, 0xa7, 0x3e, 0xa2, 0xf9, 0x32, 0xbd,
  0x5a, 0x2f, 0x0d, 0xbe, 0xed, 0x6b, 0xfd, 0xbd, 0x87, 0x1c, 0x83, 0xbe,
  0xd4, 0x4b, 0x80, 0x3c, 0x1a, 0xd9, 0xd6, 0x3d, 0xc2, 0x1a, 0x81, 0xbe,
  0x7f, 0xd4, 0xa9, 0xbe, 0x59, 0xef, 0xea, 0x3c, 0xb5, 0x1d, 0x9e, 0x3d,
  0xde, 0xc1, 0x4b, 0xbc, 0x38, 0xe1, 0x4d, 0xbe, 0x42, 0x9d, 0x85, 0x3f,
  0xd5, 0x6f, 0xd4, 0x3d, 0x1d, 0x70, 0x88, 0xbb, 0xb3, 0x8f, 0xa6, 0x3d,
  0x9e, 0xd5, 0x02, 0xbd, 0x63, 0x45, 0x2f, 0xbe, 0x49, 0x64, 0xb1, 0xbc,
  0x82, 0x4d, 0x3f, 0xbe, 0x05, 0xa6, 0xbf, 0xbd, 0x90, 0x28, 0x1e, 0xbc,
  0x34, 0x5c, 0x93, 0x3e, 0x0a, 0x45, 0x7d, 0xbe, 0x36, 0xcb, 0xc4, 0x3d,
  0xea, 0xac, 0xe9, 0x3d, 0x6f, 0xd6, 0x63, 0x3d, 0x05, 0x9a, 0x9c, 0x3e,
  0xd8, 0x60, 0x8c, 0xbd, 0x8b, 0xd2, 0x0d, 0xbe, 0x37, 0xf6, 0xe8, 0xbd,
  0xac, 0xe6, 0x4c, 0x3e, 0x30, 0x9b, 0x55, 0x3d, 0xf2, 0xea, 0x9d, 0xbe,
  0x9a, 0xc4, 0x3c, 0x3e, 0x95, 0xd9, 0x09, 0xbe, 0x83, 0x98, 0x6c, 0x3e,
  0x1f, 0xb5, 0x08, 0x3c, 0x5e, 0xce, 0x4a, 0xbd, 0xa3, 0xf7, 0x9e, 0xbe,
  0x16, 0xc9, 0xd2, 0xbd, 0x9e, 0x85, 0xf3, 0xbd, 0xec, 0x3f, 0x58, 0xbe,
  0x25, 0x82, 0x35, 0xba, 0xc6, 0xce, 0x31, 0xbe, 0x5c, 0x81, 0x83, 0xbe,
  0xec, 0x2c, 0x8d, 0xbe, 0xdb, 0x41, 0xb9, 0x3d, 0x93, 0xac, 0xc6, 0x3c,
  0x26, 0x08, 0xe5, 0x3d, 0xa4, 0xd3, 0xfd, 0x3d, 0xdc, 0x40, 0x3d, 0xbe,
  0xcd, 0xd3, 0xdd, 0x3d, 0xa5, 0x0e, 0x99, 0x3e, 0x00, 0xb0, 0x35, 0xbe,
  0xd8, 0x31, 0x66, 0xbc, 0xec, 0xdb, 0x00, 0xbd, 0x7c, 0x9a, 0x88, 0x3e,
  0xd8, 0xc8, 0x5a, 0x3e, 0x9c, 0x03, 0xe3, 0x3c, 0x1f, 0x76, 0x63, 0xbe,
  0xdf, 0xca, 0x91, 0xbe, 0x33, 0xbe, 0x55, 0xbe, 0xf8, 0x25, 0x58, 0x3b,
  0x80, 0xd8, 0xfa, 0x3c, 0xb3, 0x88, 0x32, 0x3e, 0x53, 0x34, 0x28, 0xbd,
  0x7e, 0xb9, 0x0e, 0x3e, 0x17, 0x8c, 0x07, 0xbe, 0xac, 0x03, 0x25, 0x3e,
  0x92, 0x35, 0x12, 0xbd, 0xb5, 0xa1, 0x19, 0x3e, 0x79, 0xcc, 0xb1, 0xbd,
  0x23, 0x30, 0x78, 0xba, 0xa0, 0x81, 0x59, 0xbe, 0x78, 0x5c, 0x86, 0xbe,
  0xe1, 0x48, 0xbf, 0x3d, 0xa9, 0x66, 0x1a, 0x3e, 0xa2, 0xb0, 0x18, 0x3e,
  0x80, 0x0d, 0x8e, 0x3e, 0x4f, 0xfb, 0xcb, 0xbd, 0x8a, 0xfa, 0x2b, 0x3a,
  0x74, 0x78, 0x6a, 0xbd, 0x7e, 0x93, 0xb3, 0x3d, 0xc5, 0xc8, 0x6f, 0xbd,
  0x1f, 0x80, 0x9c, 0x3e, 0xe4, 0xa9, 0xe6, 0x38, 0xc6, 0x1d, 0x1b, 0x3e,
  0x4e, 0x5c, 0xf2, 0x3c, 0x43, 0x07, 0x3a, 0xbc, 0xd7, 0x71, 0xf3, 0x3b,
  0x2a, 0xb9, 0x0c, 0xbe, 0x46, 0xb9, 0x7d, 0x3d, 0x32, 0x70, 0x6f, 0x3e,
  0x78, 0x5f, 0x09, 0xbe, 0x8f, 0x58, 0x3b, 0x3e, 0xa1, 0x76, 0xd0, 0x3c,
  0xee, 0xf5, 0x6c, 0xbe, 0x3c, 0x1b, 0x03, 0x3e, 0x1a, 0x9b, 0x93, 0xbe,
  0xc1, 0xf8, 0xda, 0x3c, 0x6d, 0x29, 0x31, 0x3e, 0xa9, 0x28, 0x47, 0xbd,
  0x69, 0xae, 0x89, 0x3e, 0x4e, 0x9f, 0x00, 0x3e, 0xb4, 0x88, 0x0e, 0x3e,
  0xae, 0xbc, 0x28, 0x3d, 0x1c, 0x1b, 0x86, 0x3d, 0x28, 0xdb, 0x1b, 0xbe,
  0x69, 0x6c, 0x87, 0x3d, 0x1e, 0x8f, 0x13, 0xbe, 0x3c, 0xaa, 0x83, 0x3d,
  0x96, 0x1d, 0xa7, 0xbd, 0x52, 0x66, 0x15, 0xbd, 0x40, 0x54, 0xa6, 0xbd,
  0xef, 0x52, 0x33, 0xbe, 0x28, 0x5c, 0xc3, 0x3d, 0x8d, 0xd3, 0x49, 0x3e,
  0x03, 0xfa, 0xdf, 0xbe, 0x1a, 0x17, 0xbb, 0xbd, 0x12, 0x4b, 0xfb, 0x3c,
  0xbb, 0x8b, 0x97, 0xbd, 0x14, 0x5a, 0x0b, 0xbe, 0xe1, 0x37, 0x2f, 0x3d,
  0xec, 0x6c, 0x63, 0xbe, 0x62, 0xe0, 0x95, 0xbe, 0x3f, 0x31, 0xae, 0x3c,
  0xe6, 0x7a, 0x2e, 0x3e, 0xce, 0x24, 0x8b, 0xbe, 0x14, 0x51, 0xd5, 0x3c,
  0xda, 0xbb, 0x9f, 0xbe, 0x9e, 0xd0, 0x92, 0xbe, 0xd9, 0x4b, 0xaa, 0xbd,
  0x2d, 0xba, 0x0e, 0x3e, 0x22, 0xa5, 0xda, 0xbd, 0xe6, 0xc7, 0x86, 0xbc,
  0xba, 0x00, 0xcf, 0x3d, 0x84, 0x1e, 0x04, 0x3f, 0xcd, 0xf6, 0xb4, 0x3d,
  0x0a, 0xcd, 0x3c, 0xbe, 0xda, 0xda, 0x5c, 0xbc, 0x8d, 0xfb, 0x60, 0xbe,
  0x40, 0x63, 0x97, 0x3d, 0x30, 0xbf, 0x59, 0x3b, 0x6e, 0x39, 0x9f, 0xbe,
  0x00, 0x4a, 0x2c, 0xbe, 0xbc, 0x80, 0xe2, 0xbc, 0x2f, 0x10, 0xdc, 0xbd,
  0x4b, 0xf6, 0x39, 0x3d, 0x5f, 0x52, 0x0f, 0x3e, 0x4e, 0x18, 0x19, 0xbe,
  0x74, 0x40, 0x8d, 0x3d, 0xb9, 0x01, 0x18, 0x3e, 0xe2, 0x50, 0x83, 0x3e,
  0x98, 0xd2, 0xd1, 0x3e, 0xfb, 0x52, 0xb0, 0xbd, 0x91, 0x8f, 0x53, 0xbe,
  0xff, 0xb5, 0xd8, 0xbe, 0x91, 0xc9, 0xbc, 0x3d, 0x64, 0x6f, 0x4e, 0x3e,
  0x14, 0x0e, 0x39, 0xba, 0x45, 0xe3, 0x24, 0xbd, 0xa8, 0xef, 0x05, 0x3e,
  0x84, 0x57, 0xf3, 0x3d, 0xcb, 0x7a, 0x31, 0x3e, 0x7a, 0xd7, 0xc3, 0x3d,
  0xef, 0xd8, 0x10, 0x3e, 0xe3, 0xf5, 0xed, 0x3d, 0x70, 0xb0, 0x63, 0x3e,
  0x41, 0x5d, 0x13, 0x3d, 0xf7, 0x8a, 0xab, 0x3e, 0x82, 0xc9, 0x03, 0xbd,
  0x17, 0x9c, 0x70, 0xbe, 0xc5, 0xe4, 0x03, 0x3e, 0x5b, 0x05, 0x9e, 0x3e,
  0x30, 0xae, 0x4f, 0xbd, 0x4e, 0x1b, 0x85, 0x3d, 0x10, 0x2a, 0x32, 0xbe,
  0x30, 0x57, 0x2b, 0x3e, 0xe4, 0xce, 0x6c, 0xbc, 0xef, 0x29, 0x4c, 0x3e,
  0xc8, 0x2c, 0xd1, 0x3e, 0x5b, 0xc0, 0xae, 0x3d, 0x62, 0x3a, 0x05, 0x3e,
  0x48, 0x11, 0xac, 0x3e, 0xcd, 0x04, 0x94, 0x3d, 0x74, 0xcc, 0x3f, 0x3e,
  0x40, 0xc9, 0xf5, 0xbd, 0x59, 0x57, 0x04, 0x3d, 0xca, 0xa2, 0x06, 0x3e,
  0xc1, 0xe8, 0x05, 0xbe, 0x92, 0xde, 0x70, 0x3d, 0x8b, 0xfb, 0x30, 0xbe,
  0x8e, 0xdc, 0x9f, 0xbd, 0xab, 0xff, 0x88, 0x3d, 0x77, 0x79, 0xb1, 0xba,
  0xdf, 0x00, 0x72, 0xbd, 0x01, 0x49, 0x9e, 0x3e, 0x54, 0x87, 0x62, 0x3e,
  0xd4, 0x10, 0x17, 0xbd, 0xef, 0x26, 0x94, 0x3e, 0x37, 0xc8, 0xe1, 0x3e,
  0xf0, 0xbe, 0x8e, 0x3e, 0xdf, 0xfa, 0xc5, 0xbd, 0xb3, 0xac, 0x0d, 0x3d,
  0x66, 0xe3, 0xb5, 0xbb, 0x8c, 0xde, 0xc2, 0xbd, 0xf5, 0xd3, 0xd5, 0x3d,
  0x5f, 0x25, 0x5d, 0xbe, 0x3d, 0x5e, 0x90, 0xbe, 0x80, 0xee, 0xa3, 0xbe,
  0xba, 0x35, 0x9c, 0xbd, 0x7e, 0x10, 0x88, 0xbd, 0x1c, 0x32, 0xd3, 0x3e,
  0x67, 0xdb, 0x37, 0x3e, 0x84, 0x5d, 0x56, 0x3d, 0xed, 0x44, 0xce, 0x3d,
  0x3e, 0x19, 0x78, 0x3e, 0x74, 0x9b, 0xa5, 0x3e, 0x5e, 0x29, 0x2b, 0xbe,
  0x6c, 0xec, 0x82, 0x3d, 0xc7, 0x2d, 0x32, 0xbd, 0xa5, 0x7d, 0x5c, 0xbc,
  0xaf, 0xa2, 0xcf, 0x3d, 0x41, 0xe4, 0x94, 0xbe, 0x93, 0xa9, 0xbb, 0xbd,
  0x5a, 0x40, 0x83, 0x3d, 0xf2, 0xb1, 0xba, 0xbe, 0x28, 0x14, 0x81, 0x3e,
  0x20, 0x7a, 0x50, 0x3e, 0x83, 0x16, 0x57, 0xbe, 0xb8, 0x8c, 0x5b, 0x3d,
  0xe8, 0xab, 0x25, 0xbd, 0xe8, 0x48, 0xf8, 0x3b, 0x55, 0xa4, 0x3a, 0x3e,
  0x0d, 0x91, 0x4f, 0xbe, 0x24, 0xf4, 0x37, 0xbe, 0x40, 0x6a, 0x4c, 0xbe,
  0x2b, 0x44, 0xa6, 0x3d, 0x2f, 0xc9, 0xa7, 0x3e, 0xc2, 0x63, 0xb0, 0x3c,
  0x6d, 0x47, 0x37, 0x3e, 0xb4, 0xd2, 0x6e, 0xbe, 0xb5, 0x70, 0x33, 0xbe,
  0x09, 0xa5, 0x58, 0x3e, 0x4d, 0x5f, 0x52, 0xbd, 0xfd, 0x06, 0x8c, 0xbe,
  0x0d, 0x98, 0x96, 0xbe, 0x79, 0x74, 0x06, 0xbd, 0x73, 0xb3, 0x68, 0x3e,
  0x83, 0xe0, 0x34, 0x3e, 0xe3, 0x9d, 0x1f, 0xbe, 0x33, 0xe6, 0xd8, 0x3f,
  0xa8, 0xee, 0x36, 0x3e, 0x92, 0x5c, 0x66, 0x3d, 0xcc, 0x87, 0x67, 0xbc,
  0xa7, 0xe3, 0x3f, 0x3e, 0xf1, 0xa6, 0xfa, 0xbd, 0xd8, 0xed, 0x52, 0xbd,
  0x68, 0xff, 0xef, 0xbc, 0xde, 0xd6, 0x7d, 0xbd, 0x1a, 0x36, 0xb3, 0xbc,
  0xf0, 0xfa, 0x1c, 0xbe, 0x2d, 0x19, 0x1a, 0xbe, 0xa7, 0x24, 0xd6, 0x3c,
  0x96, 0xbb, 0x92, 0x3d, 0xc0, 0x5f, 0x97, 0xbd, 0x83, 0xed, 0x1d, 0x3d,
  0xa9, 0x99, 0x03, 0x40, 0x0a, 0xc5, 0x7c, 0xbe, 0x78, 0x48, 0x9f, 0x3d,
  0x82, 0x0a, 0x4c, 0xbd, 0xd2, 0x5d, 0x48, 0x3c, 0x0c, 0x9e, 0xa0, 0x3d,
  0x60, 0x42, 0x3e, 0x3e, 0x5a, 0x81, 0x97, 0x3d, 0xfe, 0x8e, 0x08, 0xbd,
  0x1e, 0x79, 0x40, 0xbe, 0x9e, 0x8e, 0xbc, 0x3c, 0xd2, 0xea, 0x32, 0xbe,
  0x29, 0xac, 0x4e, 0xbd, 0xff, 0x4d, 0x3f, 0x3e, 0xbc, 0xd9, 0xbb, 0x3c,
  0xf0, 0x64, 0xaf, 0xbe, 0x95, 0xbc, 0x03, 0x40, 0xc7, 0xd4, 0x54, 0x3d,
  0x39, 0x9b, 0x97, 0x3e, 0x4d, 0xf6, 0x1a, 0x3e, 0x89, 0x18, 0xf0, 0x3d,
  0x28, 0x3a, 0xc4, 0x3d, 0x4b, 0xe6, 0x6c, 0x3d, 0x8d, 0xe3, 0xef, 0xbd,
  0x05, 0x4f, 0x4d, 0x3d, 0x30, 0x8b, 0x25, 0x3b, 0x9b, 0xe3, 0xd4, 0x3b,
  0x88, 0x02, 0x8b, 0xbd, 0x78, 0x4c, 0xe9, 0x3c, 0x43, 0x07, 0x45, 0x3e,
  0xe4, 0x43, 0x6e, 0xbe, 0x5e, 0x6e, 0x9e, 0x3c, 0x2f, 0x32, 0xe9, 0x3f,
  0xbf, 0x84, 0xe8, 0xbd, 0xc2, 0xc3, 0xa8, 0x3e, 0x0f, 0x39, 0x98, 0x3d,
  0xea, 0x33, 0x40, 0x3e, 0x4d, 0x0d, 0x7f, 0x3e, 0xa1, 0x59, 0x88, 0xbd,
  0x47, 0xa3, 0xf6, 0xbd, 0xec, 0x00, 0xf9, 0x3d, 0x3a, 0x3e, 0x80, 0xbc,
  0x0b, 0xc5, 0x0c, 0x3e, 0x44, 0x31, 0xe7, 0xbd, 0x0b, 0xe3, 0xfa, 0xbc,
  0xee, 0xa1, 0x48, 0x3d, 0x30, 0x9a, 0x7b, 0xbd, 0x27, 0x0c, 0x9e, 0x3d,
  0x10, 0x4d, 0xfa, 0x3f, 0x71, 0xe0, 0x59, 0xbd, 0x5a, 0xec, 0x5c, 0x3d,
  0x4b, 0xef, 0x81, 0x3d, 0xf1, 0x96, 0x90, 0x3d, 0x1e, 0x49, 0x06, 0xbe,
  0x72, 0x88, 0xad, 0xbd, 0x77, 0x4e, 0x20, 0xbd, 0x1b, 0x7b, 0x1e, 0x3e,
  0x7e, 0x26, 0xe2, 0xbd, 0x96, 0x16, 0x8a, 0x3e, 0x71, 0x44, 0x49, 0xbd,
  0x7a, 0x02, 0x91, 0xbd, 0x41, 0xb9, 0x0a, 0x3e, 0x4f, 0xef, 0x50, 0xbc,
  0x44, 0x49, 0x15, 0xbe, 0x79, 0xb2, 0x0a, 0x40, 0x6e, 0x4e, 0xab, 0xbc,
  0x63, 0x5c, 0x1f, 0x3d, 0x79, 0x00, 0x5e, 0x3e, 0x9c, 0x33, 0xc5, 0xbd,
  0x7b, 0x47, 0x7e, 0x3c, 0x62, 0x82, 0x01, 0xbe, 0xaf, 0xef, 0x40, 0xbe,
  0x6f, 0xdf, 0xe5, 0x3b, 0xe2, 0x27, 0x8a, 0xbc, 0xb0, 0x15, 0x1b, 0x3d,
  0xe6, 0x37, 0xac, 0xbe, 0xd3, 0x64, 0xac, 0x3d, 0x7c, 0x51, 0x0f, 0xbc,
  0xaf, 0x81, 0x35, 0xbe, 0x6d, 0x19, 0x8f, 0xba, 0xea, 0xe7, 0x49, 0x3f,
  0x09, 0x58, 0x16, 0xbe, 0x10, 0xc3, 0x9c, 0x3c, 0x28, 0x09, 0x07, 0x3c,
  0x58, 0x68, 0x39, 0xbe, 0xff, 0x42, 0x3a, 0xbc, 0x1f, 0xc9, 0xa5, 0xbe,
  0x96, 0x21, 0x86, 0xbe, 0xfe, 0xa6, 0x08, 0xbe, 0x22, 0xb0, 0xd8, 0x3d,
  0x6f, 0xe5, 0xf6, 0xbd, 0x0f, 0xeb, 0xba, 0xbd, 0x5c, 0xb3, 0xf7, 0x3d,
  0x65, 0x9e, 0x88, 0x3e, 0x0d, 0xbe, 0x21, 0x3d, 0x82, 0x38, 0x8b, 0xbe,
  0xe1, 0xf9, 0xa6, 0xbc, 0x0e, 0x94, 0x66, 0x3d, 0xcd, 0x62, 0xef, 0x3c,
  0x1d, 0xf8, 0x3d, 0x3e, 0x09, 0x44, 0xd7, 0xbe, 0xc5, 0xf3, 0x2f, 0x3c,
  0xea, 0x21, 0xae, 0xbc, 0xb8, 0xbf, 0xa1, 0xbe, 0x5f, 0x17, 0x2c, 0x3e,
  0xd8, 0x98, 0x95, 0x3e, 0x25, 0x75, 0xb9, 0xbd, 0x15, 0x58, 0xa8, 0xbb,
  0xee, 0xb8, 0xbd, 0x3e, 0x45, 0x11, 0xa0, 0xbb, 0x81, 0x9d, 0x8b, 0x3e,
  0xc2, 0xd2, 0x8f, 0xbe, 0x44, 0xd7, 0x2d, 0xbc, 0x0a, 0xb9, 0x7f, 0xbd,
  0xc4, 0x13, 0x93, 0xbe, 0x3f, 0x4e, 0xc5, 0xbd, 0xed, 0x14, 0xd8, 0xbe,
  0x4f, 0xf1, 0x37, 0x3d, 0x53, 0x4a, 0x99, 0x3d, 0xf2, 0xc0, 0x84, 0xbd,
  0x47, 0x2c, 0xa7, 0xbc, 0x4d, 0x98, 0x8d, 0x3e, 0x82, 0x41, 0x9b, 0xbe,
  0x96, 0x61, 0x8c, 0x3d, 0x19, 0x2e, 0x67, 0x3e, 0xc7, 0xec, 0x77, 0x3e,
  0xcf, 0xc7, 0x8e, 0x3e, 0x8f, 0x0f, 0x4c, 0xbe, 0x48, 0xbd, 0xbf, 0xbd,
  0x2e, 0x97, 0xc6, 0x3d, 0xa3, 0xcf, 0x8d, 0x3e, 0x01, 0xad, 0x72, 0xbd,
  0x0a, 0x2a, 0xc8, 0x3b, 0xc0, 0xdc, 0x99, 0x3d, 0x37, 0x49, 0xe9, 0x3b,
  0x30, 0x69, 0x46, 0x3d, 0x87, 0xe2, 0x74, 0xbd, 0x89, 0x4e, 0x73, 0x3e,
  0x02, 0x6b, 0xba, 0xbd, 0x12, 0x19, 0x9e, 0x3d, 0x78, 0x34, 0x60, 0x3d,
  0x8e, 0x6f, 0x80, 0xbc, 0x37, 0x49, 0x98, 0x3e, 0x55, 0x33, 0x96, 0xbd,
  0x52, 0x63, 0xeb, 0xbc, 0x14, 0xc2, 0x7a, 0xbc, 0x67, 0x0f, 0xdd, 0xbc,
  0x82, 0x4b, 0xf3, 0xbb, 0x7f, 0x51, 0x4d, 0x3e, 0x49, 0x76, 0xf2, 0xbb,
  0x5a, 0x22, 0x19, 0x3e, 0x00, 0x21, 0x5d, 0x3d, 0xc3, 0x58, 0x6c, 0x3d,
  0x19, 0xe2, 0x96, 0x3e, 0xdb, 0xdb, 0x86, 0x3e, 0x90, 0xe4, 0xe3, 0x3d,
  0x8f, 0xad, 0x04, 0x3e, 0x73, 0xd2, 0x7c, 0xbe, 0x63, 0x72, 0x29, 0x3e,
  0x04, 0x00, 0xb3, 0xbe, 0xb1, 0xcd, 0x25, 0xbe, 0x3d, 0xc6, 0x2e, 0xbe,
  0xf0, 0x6f, 0x8a, 0xbe, 0x4c, 0xd6, 0xa7, 0xbd, 0x9a, 0xa6, 0x12, 0xbe,
  0x33, 0xa0, 0x5a, 0xbe, 0x8c, 0x0b, 0xf2, 0xbd, 0x93, 0xd1, 0xd8, 0x3c,
  0xe9, 0x9f, 0xa3, 0x3d, 0x6d, 0x10, 0x7a, 0x3e, 0xdf, 0xb4, 0x62, 0xbd,
  0xe6, 0x91, 0xbf, 0x3d, 0x23, 0x88, 0x9e, 0xb8, 0x0e, 0xae, 0x24, 0x3e,
  0xde, 0x7c, 0xcf, 0x3d, 0xdb, 0x43, 0x8a, 0xbe, 0xe3, 0xea, 0x98, 0xbd,
  0x2e, 0x06, 0x92, 0xbd, 0x31, 0x7c, 0xd4, 0x3d, 0x60, 0xea, 0x12, 0x3e,
  0xf2, 0xe9, 0xbc, 0x3c, 0xa2, 0x6e, 0x2e, 0xbe, 0x13, 0xeb, 0x5c, 0xbe,
  0xa7, 0xb3, 0xa7, 0xbd, 0xfc, 0x53, 0x82, 0x3e, 0xdc, 0x5d, 0x2f, 0x3e,
  0xbe, 0xd0, 0x69, 0xbe, 0x1c, 0x25, 0x43, 0xbe, 0xce, 0xf2, 0x30, 0x3e,
  0x04, 0xe4, 0xae, 0xbc, 0x52, 0x16, 0xb5, 0xbd, 0x0b, 0x45, 0x3d, 0xbe,
  0x15, 0xdf, 0x90, 0x3d, 0x4a, 0xb4, 0x0f, 0xbd, 0xae, 0xbf, 0x91, 0x3e,
  0x03, 0xa5, 0x9e, 0xbe, 0x38, 0x05, 0x27, 0xbe, 0x2c, 0x0f, 0x58, 0xbe,
  0xbd, 0x69, 0x2f, 0xbe, 0x9e, 0x7c, 0x94, 0xbe, 0x81, 0xc1, 0x50, 0xbe,
  0xa3, 0x9e, 0xa1, 0xbd, 0x3f, 0x87, 0x7b, 0x3d, 0x4a, 0x34, 0x3c, 0xbe,
  0x6d, 0x50, 0xcf, 0x3d, 0x83, 0x50, 0xcf, 0xbe, 0xab, 0x0b, 0x58, 0xbe,
  0x24, 0x6b, 0x0e, 0xbe, 0xe9, 0xc2, 0xe2, 0x3e, 0xb8, 0x6b, 0x8b, 0xbd,
  0x16, 0x52, 0x7a, 0xbe, 0x62, 0x79, 0x99, 0xbe, 0xb7, 0xf7, 0xad, 0xbe,
  0xa2, 0x78, 0xe7, 0xbd, 0x26, 0x71, 0x98, 0xbc, 0xb6, 0x2c, 0xba, 0xbd,
  0xfb, 0x14, 0x2b, 0xbe, 0x34, 0x8f, 0xa6, 0x3d, 0x3c, 0x6b, 0xd1, 0x3d,
  0xfc, 0xc2, 0x0e, 0xbe, 0x1e, 0x9e, 0xc6, 0x3d, 0x1b, 0x66, 0x6a, 0xbe,
  0xed, 0xf7, 0x84, 0x3d, 0x1a, 0x6d, 0xa2, 0xbd, 0x29, 0xe4, 0x63, 0x3d,
  0x3f, 0xb1, 0xb3, 0x3d, 0x36, 0x6d, 0x36, 0x3e, 0x3f, 0x0f, 0xa0, 0xbe,
  0xb4, 0x28, 0x4a, 0xbd, 0x9a, 0x2a, 0x3b, 0xbe, 0x58, 0x79, 0xe0, 0xbd,
  0xca, 0x3a, 0xe5, 0x3d, 0x83, 0x93, 0xe8, 0x3c, 0x91, 0x85, 0x21, 0x3e,
  0x27, 0x12, 0x01, 0xbe, 0x2e, 0xc7, 0xad, 0xbd, 0x63, 0x69, 0x3c, 0x3e,
  0x74, 0x5a, 0x2b, 0x3e, 0x49, 0xe6, 0x0d, 0x3d, 0x6b, 0x29, 0x67, 0xbe,
  0x3a, 0xe6, 0x36, 0xbb, 0x7b, 0xae, 0x89, 0x3c, 0xe0, 0x63, 0x6a, 0x3e,
  0xd5, 0xa6, 0xa5, 0xbd, 0xd6, 0xd7, 0xc4, 0x3c, 0x01, 0x14, 0xba, 0x3c,
  0xe9, 0x9f, 0x4d, 0x3e, 0x39, 0x42, 0xf0, 0xbd, 0x30, 0xa3, 0x7d, 0xbd,
  0xdb, 0x4d, 0x3f, 0x3e, 0x49, 0x24, 0x62, 0xbe, 0xaa, 0xed, 0x0a, 0xbe,
  0x8a, 0x0e, 0xe7, 0x3d, 0x1a, 0x74, 0x66, 0xbe, 0x71, 0x0a, 0xaf, 0xbb,
  0x07, 0x36, 0xf7, 0xbd, 0xb9, 0x74, 0xec, 0x3d, 0x6f, 0x18, 0x98, 0xbd,
  0xeb, 0x1f, 0x7d, 0x3d, 0xe3, 0xbb, 0x6c, 0x3a, 0xa3, 0x90, 0x68, 0xbe,
  0x3b, 0x5d, 0x40, 0xbb, 0xfc, 0x6b, 0xc0, 0xbd, 0x13, 0x73, 0x50, 0xbd,
  0xef, 0xa9, 0x9b, 0xbe, 0x9d, 0x03, 0xc7, 0x3d, 0x6a, 0xb4, 0xe8, 0xbd,
  0x96, 0x70, 0xe5, 0xbd, 0x73, 0x8d, 0x8e, 0xbd, 0x0c, 0x25, 0xa5, 0xbd,
  0xcb, 0x54, 0x57, 0x3d, 0x60, 0xfb, 0x39, 0x3d, 0x6a, 0xe7, 0xbb, 0xbe,
  0x0b, 0x7f, 0x61, 0xbe, 0x9b, 0x55, 0x72, 0xbe, 0x5a, 0x53, 0x47, 0xbd,
  0x5c, 0x98, 0x09, 0xbe, 0x42, 0xf9, 0x14, 0xbd, 0xdf, 0xc4, 0x10, 0xbe,
  0x82, 0x23, 0x80, 0xbe, 0x5b, 0xa6, 0xc8, 0xbd, 0x46, 0x52, 0x72, 0x3e,
  0xfd, 0xf5, 0xaa, 0x3d, 0x83, 0xc7, 0xb6, 0xbc, 0x10, 0x90, 0x3b, 0x3e,
  0x50, 0x6b, 0xd0, 0x3c, 0x3a, 0x72, 0x5d, 0x3e, 0xbc, 0xa0, 0x4b, 0xbe,
  0x5e, 0xbd, 0xa5, 0x3e, 0x0c, 0x09, 0xb4, 0x3d, 0xc3, 0x72, 0x99, 0xbd,
  0x4e, 0xfa, 0x57, 0x3d, 0x98, 0x68, 0x75, 0xbe, 0x00, 0xa4, 0x7c, 0xbd,
  0x7c, 0x2e, 0x07, 0xbe, 0x1e, 0x39, 0x1c, 0xbf, 0xad, 0xae, 0xf1, 0x3d,
  0xcd, 0x0a, 0x00, 0x3e, 0x0b, 0x01, 0xdc, 0x3c, 0xec, 0x9e, 0x3a, 0xbe,
  0x7d, 0xa8, 0x2b, 0x3e, 0xa2, 0xd0, 0x45, 0xbe, 0x4e, 0x12, 0x52, 0xbd,
  0xc5, 0x41, 0x7f, 0xbe, 0xcc, 0x63, 0x21, 0xbf, 0xd4, 0x21, 0x62, 0xbd,
  0x41, 0x43, 0x82, 0x3d, 0xfa, 0x8f, 0xe2, 0x3d, 0x1e, 0xd0, 0xa7, 0xbe,
  0xf1, 0x6c, 0xcb, 0x3d, 0x59, 0xaa, 0x01, 0xbf, 0x91, 0x9b, 0xd8, 0xbe,
  0x6a, 0x38, 0x38, 0xbd, 0xff, 0xce, 0xc3, 0x3d, 0x9b, 0x11, 0x1a, 0x3e,
  0xc1, 0x21, 0x0d, 0x3e, 0x6a, 0x3e, 0xa6, 0xbd, 0x45, 0xf5, 0x18, 0x3f,
  0x97, 0x3f, 0x70, 0xbc, 0xf5, 0x0b, 0xbd, 0x3d, 0x49, 0xde, 0xb6, 0x3d,
  0x2e, 0x81, 0xde, 0xbd, 0xf3, 0xb8, 0x87, 0xbe, 0x79, 0xe4, 0x37, 0x3e,
  0xd2, 0x9b, 0x9f, 0xbe, 0x53, 0x7e, 0x4f, 0xbe, 0x43, 0x81, 0xb1, 0xbe,
  0x80, 0xcc, 0x89, 0xbe, 0x23, 0x23, 0xbc, 0x3c, 0x51, 0xa8, 0xa7, 0x3d,
  0x96, 0x6f, 0x7d, 0xbd, 0x48, 0x7e, 0x88, 0x3d, 0xb6, 0x60, 0x68, 0x3e,
  0xc6, 0xa1, 0xa0, 0x3e, 0x26, 0xd9, 0xb3, 0x3e, 0xe0, 0x59, 0xba, 0x3d,
  0xb3, 0x92, 0x73, 0x3e, 0xa5, 0x34, 0x20, 0xbf, 0x87, 0x1d, 0xf0, 0x3e,
  0x2b, 0x02, 0x84, 0x3d, 0x56, 0x42, 0xba, 0xbc, 0x1e, 0xc3, 0xa7, 0x3c,
  0x2c, 0x77, 0x59, 0x3d, 0x12, 0x49, 0xbf, 0xbb, 0x06, 0x73, 0x93, 0xbe,
  0x59, 0x3a, 0x91, 0x3c, 0x92, 0x96, 0x89, 0x3d, 0xa3, 0x9e, 0xaf, 0xbc,
  0x02, 0x73, 0x80, 0x3e, 0x44, 0x5f, 0x08, 0xbe, 0x05, 0x5f, 0xdc, 0x3e,
  0x2b, 0x43, 0xb9, 0x3d, 0x70, 0xde, 0xd6, 0xbc, 0xb2, 0x9c, 0xa3, 0x3b,
  0xd1, 0x11, 0x31, 0x3e, 0xb5, 0x30, 0xb4, 0x3d, 0x15, 0x4f, 0x16, 0xbe,
  0x83, 0x23, 0x7d, 0xbc, 0x0b, 0xd6, 0x33, 0x3e, 0xee, 0x17, 0xef, 0x3d,
  0x44, 0x37, 0xd9, 0x3c, 0x15, 0x00, 0x85, 0x3e, 0x9c, 0xdf, 0x20, 0x3e,
  0x02, 0x19, 0x48, 0x3d, 0xa4, 0xde, 0xb4, 0x3d, 0x1e, 0x62, 0x5f, 0x3e,
  0xd6, 0x73, 0xc0, 0x3e, 0xbc, 0x7a, 0xc5, 0x3d, 0x71, 0xab, 0xe5, 0xbc,
  0x35, 0x1f, 0x3d, 0x3c, 0xd4, 0x3f, 0x4f, 0xbd, 0xa9, 0x42, 0x2b, 0x3e,
  0x10, 0xac, 0xca, 0xbd, 0x9e, 0xfc, 0x7e, 0xbe, 0x43, 0x6f, 0x8d, 0xbd,
  0xe3, 0xc3, 0x52, 0x3d, 0xc9, 0x6f, 0x01, 0xbe, 0x83, 0xee, 0x21, 0x3e,
  0x49, 0xfd, 0x80, 0x3d, 0x62, 0x00, 0x46, 0x3d, 0x52, 0x52, 0x09, 0x3e,
  0x06, 0x22, 0x45, 0x3e, 0x75, 0xd9, 0x8e, 0x3e, 0x3b, 0x65, 0xdb, 0x3d,
  0x08, 0x8d, 0x2c, 0x3b, 0xf1, 0xf1, 0x10, 0x3d, 0x8f, 0x18, 0x2a, 0xbe,
  0x1e, 0x41, 0x18, 0x3e, 0x35, 0x03, 0xd4, 0xbe, 0xae, 0x28, 0xac, 0xbe,
  0xfb, 0x76, 0x11, 0xbf, 0x45, 0xd5, 0x15, 0xbe, 0x47, 0x25, 0x69, 0xbd,
  0x58, 0x4a, 0x16, 0x3e, 0xd4, 0x97, 0x7b, 0x3c, 0xe0, 0x46, 0x15, 0x3d,
  0xa1, 0x9a, 0xa0, 0x3d, 0x65, 0xd6, 0xe3, 0x3e, 0x9e, 0x41, 0xa3, 0x3e,
  0x05, 0x99, 0xa4, 0x3d, 0x18, 0xd9, 0x9c, 0x3d, 0xaf, 0x51, 0xb4, 0xbd,
  0x47, 0xcb, 0xd2, 0xbe, 0xe2, 0x66, 0x53, 0x3e, 0x5d, 0x27, 0x19, 0xbf,
  0x94, 0x93, 0xf8, 0xbe, 0x84, 0xf2, 0x40, 0x3b, 0x38, 0xcb, 0x16, 0xbf,
  0x80, 0xd5, 0x5c, 0x3e, 0x4b, 0x5d, 0x0e, 0x3e, 0xbc, 0xcb, 0xa1, 0xbe,
  0x91, 0x70, 0x79, 0xbc, 0x30, 0x43, 0x8d, 0x3d, 0x0d, 0xce, 0xdf, 0xbc,
  0x34, 0x2a, 0xbf, 0xbc, 0xef, 0xa7, 0x83, 0x3d, 0xab, 0xbd, 0xcb, 0xbd,
  0xd9, 0xec, 0xaa, 0xbe, 0x55, 0x7e, 0x57, 0xbe, 0x3a, 0x5b, 0x93, 0x3d,
  0xc1, 0xff, 0x23, 0xbd, 0xfb, 0x1b, 0x79, 0x3a, 0xdb, 0xc2, 0x86, 0x3d,
  0x76, 0xc7, 0x22, 0xbe, 0x25, 0x5c, 0xeb, 0x3e, 0x83, 0x9e, 0x02, 0xbd,
  0x22, 0xd1, 0x9a, 0xbd, 0x64, 0x94, 0x19, 0xbd, 0xe0, 0x12, 0xe3, 0x3c,
  0x1d, 0x2c, 0x7f, 0x3e, 0xf3, 0xb7, 0x5f, 0xbe, 0x9a, 0x94, 0xe3, 0xbd,
  0x14, 0x72, 0xae, 0x3f, 0xe0, 0xe3, 0xfe, 0x3d, 0x02, 0x4c, 0x94, 0x3d,
  0x45, 0xdb, 0x06, 0x3f, 0x89, 0xea, 0x16, 0xbd, 0xfc, 0xd8, 0x1b, 0xbe,
  0x4e, 0x1e, 0x57, 0xb9, 0x15, 0xf8, 0xde, 0xbd, 0x96, 0x6e, 0xbc, 0x3e,
  0x19, 0x5a, 0x87, 0xbe, 0x9e, 0x15, 0xae, 0xbc, 0x21, 0x79, 0x8d, 0xbe,
  0xbf, 0x92, 0xa7, 0xbd, 0xf3, 0x06, 0x95, 0x3d, 0xe4, 0x95, 0xd5, 0xbd,
  0x0f, 0x67, 0x36, 0x3c, 0xd8, 0x1b, 0xca, 0x3f, 0xe5, 0xcc, 0xdc, 0xbd,
  0x89, 0xe9, 0x6d, 0x3e, 0x19, 0x62, 0x83, 0x3e, 0x77, 0x22, 0x00, 0x3e,
  0x74, 0x91, 0x38, 0x3e, 0x51, 0x3a, 0x7c, 0x3e, 0xfa, 0xfd, 0x07, 0xbd,
  0x08, 0x7f, 0xd3, 0x3d, 0x5d, 0x39, 0x4a, 0xbe, 0x1e, 0x0d, 0xe7, 0x3d,
  0x4c, 0x28, 0x2e, 0xbe, 0x4b, 0x34, 0x96, 0x3d, 0x0b, 0xf1, 0x3d, 0x3e,
  0xab, 0x4a, 0xe3, 0x3d, 0x99, 0xb7, 0x63, 0xbc, 0xe7, 0xa5, 0x9f, 0x3f,
  0x79, 0xe9, 0x2d, 0x3d, 0x82, 0xbe, 0x76, 0x3e, 0x29, 0xe5, 0x97, 0x3e,
  0xfd, 0x24, 0x1c, 0xbd, 0x66, 0x07, 0x5a, 0xbe, 0x09, 0x90, 0xad, 0x3e,
  0x89, 0x3b, 0x5e, 0x3c, 0x36, 0x28, 0xad, 0x3e, 0xac, 0x79, 0xfb, 0x3c,
  0x5b, 0x6a, 0x7f, 0xbe, 0xe1, 0x5d, 0xa1, 0x3c, 0xb7, 0x5f, 0xd1, 0xbd,
  0xd0, 0x95, 0x34, 0x3e, 0x73, 0x65, 0x8d, 0xbd, 0x0d, 0x6c, 0x45, 0x3a,
  0x0d, 0xf7, 0x93, 0x3f, 0xda, 0x84, 0xf5, 0x3d, 0xf9, 0xba, 0x7b, 0x3e,
  0x1a, 0x7a, 0x98, 0x3e, 0x88, 0x26, 0x15, 0x3e, 0x0d, 0xdd, 0x6e, 0xbe,
  0x40, 0x05, 0x3d, 0x3e, 0xcd, 0xe5, 0x88, 0x3d, 0x3b, 0xfa, 0x85, 0x3e,
  0xde, 0xc4, 0x2f, 0xbd, 0x38, 0xf8, 0x5a, 0x3c, 0x9a, 0x0e, 0x22, 0x3d,
  0x17, 0x1d, 0x7a, 0xbc, 0xdd, 0xeb, 0xd9, 0xbd, 0xf1, 0x54, 0x07, 0xbe,
  0xc5, 0x53, 0x11, 0xbe, 0xaf, 0xef, 0xa6, 0x3f, 0x93, 0x19, 0xa2, 0x3c,
  0x8f, 0x91, 0xc9, 0x3c, 0xaf, 0xd7, 0xac, 0x3e, 0xd1, 0x8e, 0x4a, 0xbc,
  0x2d, 0x6e, 0x82, 0xbd, 0xab, 0xd9, 0x6e, 0x3d, 0xcb, 0xec, 0x38, 0xbe,
  0xe9, 0x74, 0xd4, 0x3d, 0xdd, 0x9f, 0x88, 0xbc, 0x75, 0x81, 0x58, 0x3e,
  0x18, 0xaf, 0x83, 0xbe, 0xd4, 0x5f, 0xad, 0x3d, 0x8f, 0x49, 0xfa, 0x3c,
  0x3d, 0x62, 0x1f, 0x3e, 0xa0, 0x9b, 0x1b, 0xb6, 0xa7, 0xdf, 0xc7, 0x3f,
  0x4c, 0x70, 0xfd, 0x3d, 0xe9, 0x3e, 0x09, 0xbe, 0xd5, 0xa4, 0xd7, 0x3e,
  0x9a, 0x56, 0x3c, 0x3d, 0x42, 0xc8, 0xfb, 0x3d, 0xc6, 0x15, 0x1f, 0xbe,
  0x80, 0x4b, 0x5e, 0xbe, 0x5c, 0xcf, 0x98, 0x3e, 0x30, 0x51, 0x23, 0xbe,
  0x90, 0x79, 0xba, 0xbe, 0x97, 0x7d, 0xac, 0xbe, 0xfa, 0xd8, 0x22, 0xbd,
  0xff, 0xd5, 0x42, 0x3e, 0x30, 0xdc, 0x9a, 0xbd, 0xc7, 0x27, 0x4f, 0x3c,
  0xf5, 0x29, 0x3c, 0x3f, 0x9d, 0x15, 0x04, 0xbe, 0x8c, 0xc8, 0x5d, 0xbd,
  0x0a, 0x5e, 0x2e, 0x3e, 0xa1, 0xcf, 0xb9, 0xbd, 0x44, 0xc8, 0x48, 0xbe,
  0x2d, 0x26, 0xc3, 0xbd, 0xcc, 0xad, 0x75, 0xbe, 0xf1, 0xc2, 0x90, 0xbd,
  0xd8, 0xc7, 0x2e, 0xbd, 0x34, 0xe0, 0x61, 0xbd, 0x81, 0x43, 0xbd, 0xbd,
  0x63, 0x3d, 0x55, 0x3e, 0x75, 0x55, 0x02, 0x3e, 0xc8, 0x53, 0x3d, 0xbd,
  0xd2, 0xc1, 0xb4, 0xbe, 0xf2, 0x09, 0xa5, 0x3d, 0xb2, 0xb7, 0x6b, 0xbd,
  0x3b, 0x28, 0x82, 0xbb, 0xcd, 0xd6, 0x7a, 0xbe, 0x0b, 0x27, 0x1e, 0xbe,
  0xb6, 0x6b, 0x4f, 0xbe, 0x47, 0x18, 0xe8, 0xbd, 0x33, 0x92, 0xef, 0xbd,
  0xe0, 0xc1, 0x4d, 0xbe, 0x6b, 0x5c, 0xb1, 0xbd, 0xe3, 0xd9, 0xc8, 0x3b,
  0x9b, 0x60, 0xc6, 0xbd, 0xc0, 0xf9, 0x34, 0x3d, 0x49, 0x9c, 0xfc, 0x3d,
  0x03, 0x4a, 0x00, 0x3e, 0xee, 0x16, 0x2a, 0xbe, 0x88, 0x19, 0xd9, 0xbd,
  0xae, 0x2f, 0x33, 0xbe, 0xe6, 0x24, 0x1f, 0xbe, 0x1b, 0xe7, 0x9f, 0x3c,
  0x49, 0x57, 0x2d, 0xbe, 0x53, 0xe0, 0xb2, 0x3d, 0x99, 0xdb, 0xe5, 0xbd,
  0xfb, 0x70, 0xed, 0xbd, 0xb8, 0x70, 0x82, 0xbd, 0xb7, 0x61, 0x4f, 0x3c,
  0x4d, 0x34, 0xa5, 0x3b, 0xe1, 0x27, 0x98, 0xbb, 0xc2, 0xea, 0x18, 0xbe,
  0x8d, 0x0a, 0x82, 0xbc, 0x11, 0x1c, 0xc6, 0x3c, 0x79, 0xb0, 0x93, 0xbe,
  0x90, 0xc8, 0xc1, 0xbc, 0x1c, 0x63, 0x01, 0xbe, 0x29, 0xb7, 0xe6, 0x3d,
  0x94, 0x3b, 0x29, 0xbe, 0x75, 0x45, 0x6f, 0xbe, 0x86, 0xf4, 0x3e, 0x3e,
  0x2f, 0xbb, 0x07, 0x3d, 0x43, 0x24, 0x30, 0x3d, 0x8a, 0x75, 0x2f, 0x3b,
  0x4a, 0xa1, 0x63, 0x3e, 0xe1, 0x4d, 0x4b, 0x3e, 0x4b, 0xe9, 0xe7, 0xbd,
  0xdb, 0x61, 0x05, 0x3e, 0xbd, 0xe1, 0x27, 0x3e, 0x75, 0x8a, 0xa7, 0x3e,
  0x90, 0xc5, 0x1a, 0xbe, 0x29, 0xb5, 0xb9, 0xbd, 0x58, 0xce, 0xc4, 0x3d,
  0x22, 0xc4, 0x82, 0x3d, 0x8f, 0xa2, 0xf2, 0x3d, 0x82, 0x6a, 0x1d, 0xbe,
  0xda, 0xbf, 0x3c, 0xbc, 0xa5, 0xc8, 0x68, 0x3d, 0xfc, 0x6e, 0x46, 0xbe,
  0x58, 0x45, 0x03, 0xbe, 0x4a, 0x78, 0x3d, 0xbe, 0x2b, 0x5d, 0xe5, 0xbd,
  0x29, 0x17, 0x29, 0x3e, 0x91, 0xb1, 0x73, 0x3d, 0x35, 0x8d, 0xeb, 0x3d,
  0xf9, 0x0a, 0x35, 0x3e, 0x6e, 0x5e, 0x26, 0xbc, 0x39, 0x0c, 0x9e, 0xbd,
  0x8d, 0x9f, 0x65, 0x3e, 0xfd, 0x82, 0x9d, 0xbe, 0xd1, 0xd4, 0x01, 0x3e,
  0xa4, 0x68, 0x1e, 0xbe, 0xeb, 0x3c, 0xb8, 0x3c, 0xc1, 0xf8, 0x87, 0xbe,
  0x57, 0xbb, 0xed, 0xbd, 0xc9, 0xef, 0x28, 0xbe, 0xb0, 0x45, 0x4e, 0xbd,
  0x8c, 0x40, 0x89, 0xba, 0xa4, 0x26, 0xa4, 0x3d, 0x76, 0xe4, 0x00, 0x3e,
  0x23, 0x00, 0x4b, 0xbe, 0xfb, 0x35, 0x05, 0x3e, 0x27, 0x19, 0xc0, 0xbd,
  0xeb, 0x52, 0xef, 0xbd, 0xab, 0x9a, 0xbc, 0xbd, 0xcd, 0xe6, 0x8e, 0xbd,
  0x87, 0x9e, 0x04, 0x3e, 0xc7, 0x8a, 0x38, 0xbe, 0x8c, 0x64, 0xa3, 0xbd,
  0x4f, 0xf5, 0x18, 0x3d, 0xa1, 0x3e, 0xc3, 0xbe, 0x7c, 0x5a, 0xa3, 0x3e,
  0x67, 0x0d, 0xb2, 0xbd, 0xa4, 0xba, 0xb2, 0xbe, 0xdc, 0x6c, 0x2b, 0x3d,
  0x26, 0xdc, 0x82, 0x3e, 0x35, 0xdc, 0x8a, 0xbd, 0xf8, 0x7a, 0x21, 0xbe,
  0x7b, 0x53, 0x5f, 0xbe, 0x45, 0x84, 0x38, 0xbe, 0x53, 0xe1, 0x07, 0xbe,
  0x50, 0xcd, 0x5c, 0x3d, 0xcd, 0x00, 0xea, 0x3d, 0x52, 0xd8, 0x0e, 0xbc,
  0xad, 0x65, 0x3d, 0x3d, 0xeb, 0xef, 0xc5, 0x3c, 0x5f, 0xb7, 0xf5, 0x3d,
  0x4b, 0x7b, 0x1c, 0xbc, 0x46, 0x73, 0x5f, 0xbe, 0xf6, 0x5b, 0x79, 0xbd,
  0xe5, 0xb7, 0x4c, 0xbc, 0x47, 0x5e, 0x05, 0xbe, 0xd6, 0x67, 0x54, 0xbd,
  0x63, 0xde, 0xbf, 0x3d, 0x29, 0x33, 0xc7, 0xbd, 0xde, 0x35, 0x49, 0x3f,
  0x49, 0x3a, 0xd4, 0x3d, 0x7d, 0xbd, 0x0c, 0x3e, 0x28, 0x80, 0x75, 0xbe,
  0xc5, 0xbf, 0x55, 0xbc, 0x95, 0x39, 0x19, 0x3e, 0xad, 0x74, 0x95, 0x3d,
  0x72, 0x0a, 0x9e, 0xbb, 0x49, 0xda, 0x97, 0x3e, 0xd5, 0xcf, 0x3b, 0xbe,
  0xed, 0x30, 0x27, 0x3e, 0x20, 0x53, 0xad, 0x3c, 0xad, 0xaf, 0x01, 0xbc,
  0xeb, 0x8f, 0xf9, 0x3d, 0x90, 0x50, 0x75, 0x3d, 0xa2, 0xbe, 0x32, 0xbb,
  0xc7, 0xc7, 0xa4, 0x3f, 0x33, 0xb0, 0x96, 0x3d, 0xce, 0xf6, 0x89, 0x3e,
  0x2a, 0xd4, 0x11, 0x3e, 0x99, 0xd5, 0x01, 0xbd, 0xe9, 0x28, 0x00, 0xbc,
  0xd1, 0x44, 0xac, 0x3d, 0x3c, 0xe1, 0x32, 0xbe, 0x53, 0x55, 0xb8, 0xbd,
  0x51, 0xdb, 0xc8, 0xbd, 0x4c, 0x00, 0x39, 0x3e, 0x29, 0xf2, 0x65, 0xbd,
  0x61, 0xa2, 0x10, 0xbf, 0xd7, 0x95, 0xf9, 0xbc, 0xf1, 0xf2, 0x77, 0xbe,
  0xb5, 0x1c, 0x10, 0xbb, 0x00, 0xd4, 0xa9, 0x3f, 0x94, 0xdb, 0xaf, 0x3d,
  0x89, 0x4a, 0xc4, 0x3d, 0x20, 0x6f, 0x18, 0x3d, 0x95, 0x33, 0xa6, 0xbd,
  0x88, 0xcf, 0x68, 0xbe, 0xa8, 0xbe, 0x91, 0x3e, 0x26, 0x48, 0xe2, 0x3c,
  0xdd, 0x37, 0x3b, 0xbc, 0xd7, 0xff, 0x43, 0x3d, 0x83, 0xeb, 0x76, 0x3d,
  0xcd, 0x99, 0xdd, 0xbd, 0xb7, 0x11, 0xb5, 0xbe, 0xff, 0x41, 0x24, 0xbe,
  0x1d, 0x51, 0xbd, 0xbe, 0x6e, 0x37, 0xc1, 0x3c, 0x20, 0x8b, 0xbd, 0x3e,
  0xde, 0xfd, 0x95, 0x3e, 0xee, 0x69, 0x01, 0x3e, 0x26, 0x97, 0x08, 0xbe,
  0x12, 0x0a, 0xb6, 0xba, 0x06, 0xe7, 0xb1, 0xbd, 0xa7, 0x7e, 0xb7, 0x3c,
  0x86, 0xe8, 0x16, 0x3a, 0x92, 0xd1, 0x43, 0x3e, 0x30, 0x4e, 0x01, 0x3c,
  0x9e, 0x27, 0x49, 0xbe, 0xa7, 0xbe, 0x6b, 0xbd, 0xf6, 0x58, 0x98, 0xbe,
  0x0b, 0xa1, 0x4e, 0xbe, 0x01, 0x49, 0x92, 0xbe, 0x81, 0xe0, 0x72, 0x3c,
  0xea, 0x7f, 0xe4, 0x3f, 0xc8, 0x86, 0x90, 0x3e, 0x2a, 0x58, 0xbf, 0x3d,
  0x14, 0x57, 0x44, 0xbe, 0x67, 0x1a, 0xcd, 0x3c, 0x70, 0x5a, 0x18, 0x3e,
  0x11, 0x89, 0xa1, 0x3c, 0x61, 0x51, 0xa2, 0x3d, 0xe2, 0xd3, 0x47, 0x3e,
  0x7a, 0x1c, 0x28, 0x3e, 0x55, 0xf9, 0x12, 0xbe, 0x3c, 0xa4, 0x47, 0xbe,
  0xfa, 0xe5, 0xaa, 0xbc, 0xd0, 0x42, 0x03, 0xbe, 0x5d, 0x8d, 0x31, 0xbe,
  0x6f, 0xa5, 0xd7, 0xbd, 0xbd, 0x08, 0xca, 0x3f, 0x7a, 0x1d, 0x3f, 0x3e,
  0x69, 0xe3, 0xe7, 0x3d, 0x7a, 0xa8, 0x24, 0x3e, 0x9a, 0xdc, 0x11, 0xbb,
  0x21, 0xef, 0x63, 0xbc, 0xc1, 0x22, 0x9e, 0xbb, 0x6b, 0x90, 0xd7, 0x3d,
  0x28, 0x37, 0xbb, 0x3d, 0xd0, 0xb8, 0x89, 0x3d, 0x11, 0xf5, 0x85, 0x3d,
  0x02, 0xea, 0x5f, 0x3d, 0x67, 0x85, 0x73, 0x3d, 0x1f, 0x32, 0x6b, 0xbe,
  0xdc, 0xc5, 0x32, 0xbd, 0xee, 0x7a, 0x33, 0xbd, 0x0c, 0x21, 0x99, 0x3e,
  0x2a, 0xeb, 0x8c, 0x3d, 0x17, 0xef, 0x2a, 0xbe, 0x2d, 0xf2, 0x67, 0x3d,
  0x39, 0xf7, 0x76, 0xbe, 0x07, 0x27, 0x7f, 0x3e, 0x69, 0x04, 0x89, 0xbd,
  0xf9, 0x88, 0xaa, 0x3d, 0xe7, 0xa9, 0x0f, 0x3e, 0xa5, 0x90, 0x93, 0xbe,
  0x3f, 0x87, 0xc3, 0xbd, 0x95, 0x1f, 0xe5, 0x3d, 0x8e, 0xc7, 0x2f, 0xbe,
  0x22, 0x1b, 0x26, 0x3e, 0x15, 0xc3, 0x59, 0xbe, 0x00, 0x10, 0xfd, 0xbd,
  0x3f, 0x11, 0xc7, 0x3f, 0xba, 0xc9, 0xbf, 0x3d, 0x2c, 0x60, 0x3f, 0x3e,
  0x94, 0xcf, 0x9e, 0x3e, 0xf3, 0x61, 0x31, 0x3d, 0x36, 0xab, 0x2f, 0x3e,
  0xb6, 0xbf, 0x32, 0x3d, 0x51, 0x73, 0xbb, 0xbd, 0x5e, 0x22, 0xe7, 0x3d,
  0xcc, 0xbe, 0x92, 0xbd, 0x08, 0x9d, 0x38, 0xbd, 0x9d, 0x0e, 0xa2, 0xbd,
  0x8b, 0x9d, 0x48, 0xbd, 0x41, 0xda, 0xb5, 0x3b, 0xae, 0x3f, 0x65, 0x3e,
  0x0d, 0x71, 0x02, 0x3e, 0x81, 0x7a, 0xe6, 0x3f, 0x50, 0x3a, 0x10, 0x3d,
  0x58, 0xd2, 0xc8, 0x3e, 0x06, 0x12, 0x76, 0xbd, 0x08, 0x85, 0x26, 0x3e,
  0xa0, 0xdd, 0x40, 0x3c, 0x98, 0x84, 0x0e, 0x3f, 0x8e, 0xbf, 0xc2, 0xbd,
  0xc6, 0xfa, 0xd5, 0x3c, 0xdf, 0x32, 0x7b, 0xbe, 0x6b, 0x4a, 0xed, 0xbd,
  0x50, 0x6f, 0x6a, 0xbe, 0x09, 0x21, 0xb6, 0xbe, 0xe4, 0x18, 0xd3, 0x3d,
  0x30, 0xd7, 0x55, 0xbe, 0xda, 0x83, 0x7d, 0x3c, 0x44, 0xa4, 0xf9, 0x3f,
  0x63, 0x63, 0x3e, 0x3d, 0x7c, 0x75, 0xb7, 0x3e, 0x97, 0xf1, 0x37, 0x3e,
  0x3d, 0x47, 0x89, 0x3e, 0x65, 0xb9, 0x93, 0xbe, 0x6f, 0x67, 0xca, 0x3e,
  0x90, 0xe3, 0xb8, 0xbd, 0x15, 0x01, 0xbd, 0x3e, 0x8c, 0x3b, 0x1d, 0x3d,
  0x4d, 0x3a, 0x50, 0x3e, 0xb0, 0x51, 0xd1, 0xbd, 0x50, 0xe7, 0x58, 0xbe,
  0x3f, 0x8a, 0x7a, 0xbe, 0xb7, 0x08, 0x04, 0xbb, 0xa6, 0x56, 0xfb, 0xbd,
  0x80, 0x03, 0x03, 0x40, 0xb1, 0x27, 0x1b, 0xbd, 0xe7, 0x3e, 0xb8, 0x3c,
  0x5d, 0xc2, 0x48, 0x3d, 0xf1, 0xa7, 0x91, 0x3d, 0xc9, 0xd2, 0xbc, 0xbd,
  0xfc, 0xd8, 0xc7, 0xbb, 0x1e, 0xda, 0x2e, 0x3e, 0x1d, 0xb9, 0x79, 0x3e,
  0x10, 0xeb, 0x81, 0xbe, 0x9f, 0xae, 0xfe, 0x3b, 0x46, 0x28, 0x15, 0xbe,
  0x99, 0xcb, 0x56, 0xbe, 0xd9, 0x90, 0xa9, 0xbd, 0x54, 0xb0, 0x31, 0x3d,
  0x10, 0xe4, 0x6e, 0xbd, 0x50, 0x35, 0xfd, 0x3f, 0x33, 0x4a, 0x20, 0x3e,
  0x68, 0xec, 0x2a, 0x3e, 0x91, 0x44, 0x03, 0x3e, 0x87, 0xbd, 0x3e, 0xbe,
  0x37, 0x62, 0x80, 0x3e, 0x0d, 0x4b, 0x20, 0xbe, 0xee, 0x91, 0x91, 0x3d,
  0x84, 0x3d, 0xbe, 0x3e, 0x2e, 0x3e, 0xa5, 0x3c, 0xc4, 0x25, 0x52, 0xbd,
  0x3c, 0x80, 0xd3, 0x3d, 0xe0, 0x10, 0xa2, 0x3c, 0x78, 0x15, 0x5a, 0xbc,
  0x54, 0x16, 0x57, 0x3a, 0x79, 0x15, 0xb5, 0x3d, 0xd4, 0x80, 0xd2, 0x3f,
  0x9a, 0xfd, 0xe5, 0x3e, 0x39, 0x96, 0x2e, 0x3d, 0xb3, 0x5f, 0xf5, 0x3e,
  0xc2, 0xe6, 0x5d, 0xbd, 0xb0, 0x84, 0x1f, 0x3e, 0xb6, 0xf3, 0x09, 0x3c,
  0x3d, 0x6b, 0x25, 0x3d, 0x1b, 0xd3, 0x71, 0x3d, 0x8d, 0xb7, 0x12, 0x3d,
  0xf6, 0x54, 0xbe, 0xbd, 0xe5, 0x0d, 0xb0, 0xbd, 0x03, 0x0b, 0xdb, 0xbd,
  0xdd, 0xfa, 0x96, 0xbe, 0xe1, 0x1d, 0xb4, 0xbc, 0x3c, 0x2d, 0x14, 0xbd,
  0x57, 0xde, 0x8d, 0x3f, 0x55, 0xf9, 0xb8, 0x3d, 0x3c, 0xe1, 0x7a, 0xbe,
  0x32, 0xed, 0xca, 0x3e, 0x17, 0x0b, 0xae, 0xbe, 0x6c, 0xb0, 0xd8, 0x3e,
  0xbb, 0x3d, 0xa5, 0xbe, 0xe9, 0x00, 0xc5, 0xbc, 0x61, 0xc5, 0x9a, 0x3e,
  0xd1, 0x20, 0x47, 0x3e, 0xd9, 0x12, 0xcc, 0x3d, 0x94, 0x76, 0xa5, 0x3e,
  0x8e, 0x85, 0x20, 0xbd, 0x1a, 0x8b, 0x75, 0x3e, 0x57, 0x36, 0x87, 0xbe,
  0x39, 0x5e, 0x83, 0x3d, 0x66, 0x96, 0x09, 0x3f, 0x02, 0xa9, 0xa6, 0x3e,
  0x1a, 0x05, 0x05, 0x3e, 0x1a, 0x05, 0x08, 0x3f, 0x5a, 0x64, 0xb5, 0xbd,
  0x86, 0xf7, 0x96, 0x3e, 0xbe, 0xa8, 0x00, 0xbe, 0x47, 0x28, 0x99, 0xbd,
  0x18, 0xa2, 0xce, 0x3e, 0xe7, 0x56, 0x80, 0x3d, 0x2e, 0x9c, 0x3d, 0xbe,
  0x0d, 0x98, 0xb8, 0xbc, 0x6d, 0x36, 0x41, 0x3e, 0x0f, 0xc3, 0x0e, 0x3e,
  0x45, 0x62, 0x63, 0x3d, 0x84, 0x66, 0x1f, 0x3e, 0x50, 0x5c, 0x34, 0x3f,
  0x8c, 0x2a, 0xa3, 0x3c, 0x9f, 0x8b, 0xa4, 0x3e, 0xd9, 0x5b, 0x9f, 0x3e,
  0xfb, 0x1c, 0x14, 0x3e, 0xae, 0x89, 0xf7, 0xbb, 0x90, 0xef, 0xc8, 0x3e,
  0x65, 0x87, 0xab, 0xbc, 0xc1, 0x7e, 0x29, 0x3e, 0xce, 0x87, 0x6b, 0x3e,
  0xbd, 0xdc, 0xa9, 0xbd, 0x96, 0x23, 0x98, 0xbd, 0xbd, 0x3d, 0xa1, 0x3d,
  0xfa, 0xdd, 0xe6, 0xbd, 0x8b, 0x21, 0x8f, 0x3e, 0x92, 0x12, 0x05, 0x3e,
  0xdc, 0x0f, 0xf1, 0x3e, 0x31, 0x70, 0xb4, 0x3d, 0x59, 0x61, 0xf5, 0x3e,
  0xc1, 0x77, 0xef, 0x3e, 0x20, 0x19, 0xc1, 0x3e, 0x8c, 0xfe, 0x24, 0xbe,
  0x2c, 0xa1, 0x04, 0x3f, 0x1e, 0x6b, 0x76, 0xbd, 0x0d, 0x2c, 0xd5, 0x3e,
  0x52, 0x04, 0x92, 0x3e, 0xd7, 0x33, 0x59, 0x3e, 0x91, 0xa9, 0xf8, 0xbd,
  0xd1, 0x20, 0x25, 0x3e, 0xee, 0x6a, 0x9a, 0xbe, 0x73, 0x96, 0x6a, 0x3e,
  0x08, 0xa7, 0x0e, 0x3e, 0x88, 0x29, 0xfe, 0x3d, 0x46, 0x5b, 0x01, 0x3e,
  0xc7, 0x3b, 0xfe, 0x3c, 0x45, 0x1e, 0x9a, 0x3e, 0x33, 0x72, 0x43, 0x3e,
  0x69, 0xdf, 0x93, 0xbd, 0x91, 0xc3, 0xe3, 0xbd, 0xd2, 0x00, 0x3d, 0x3e,
  0xc2, 0xba, 0x56, 0x3e, 0x5c, 0x24, 0x9f, 0x3e, 0x1a, 0x08, 0x02, 0xbe,
  0xc0, 0x48, 0xbc, 0x3c, 0xac, 0xf7, 0x2e, 0x3e, 0x05, 0xdd, 0x2f, 0x3e,
  0x91, 0xf9, 0xcc, 0x3e, 0x0c, 0x1c, 0x2c, 0x3d, 0x11, 0x77, 0xe4, 0x3e,
  0x0a, 0x9b, 0xe5, 0x3d, 0xe2, 0xe3, 0x36, 0x3e, 0x3b, 0xcc, 0x8a, 0x3e,
  0x3d, 0x18, 0x12, 0xbe, 0x4a, 0x88, 0xb6, 0x3c, 0x61, 0xa0, 0x9d, 0xbe,
  0x8b, 0xec, 0x00, 0x3d, 0xd4, 0x67, 0xb1, 0x3e, 0x2b, 0x11, 0xd2, 0x3e,
  0xf8, 0xe7, 0x9e, 0xbe, 0x4b, 0x6c, 0x83, 0x3b, 0xb2, 0x81, 0xf4, 0x3c,
  0x81, 0x1e, 0x29, 0x3d, 0x4e, 0xd5, 0x0d, 0x3e, 0xe8, 0x43, 0x8a, 0x3d,
  0x5c, 0xe4, 0x2b, 0x3f, 0x63, 0x46, 0x90, 0x3e, 0x62, 0xbc, 0xf1, 0x3d,
  0xff, 0xee, 0xa8, 0x3e, 0x4d, 0x76, 0x78, 0xbe, 0xbc, 0x42, 0x3d, 0x3b,
  0xd5, 0xf7, 0x89, 0xbd, 0x70, 0xcf, 0x2f, 0x3e, 0x33, 0x6e, 0x84, 0x3e,
  0x1f, 0x43, 0xc1, 0x3e, 0x6f, 0x11, 0x38, 0xbe, 0x40, 0x8f, 0xa0, 0xbd,
  0x96, 0xc3, 0x40, 0xbc, 0x12, 0x46, 0x54, 0x3d, 0xe2, 0xdd, 0xef, 0xba,
  0xff, 0x3f, 0xc8, 0x3d, 0x46, 0x29, 0xf7, 0x3d, 0x31, 0x53, 0x1a, 0xbe,
  0x29, 0x56, 0xed, 0xbd, 0xcb, 0xa5, 0xc1, 0x3c, 0xc4, 0xed, 0xf2, 0x3d,
  0xd3, 0x1c, 0x74, 0xbe, 0x10, 0x55, 0xd0, 0x3d, 0xc8, 0xab, 0xa2, 0xbe,
  0x6e, 0x4b, 0xfe, 0xbd, 0x45, 0x05, 0x7f, 0xbd, 0x32, 0x7a, 0x02, 0x3d,
  0x33, 0x8b, 0x65, 0xbe, 0xe1, 0x07, 0xc4, 0x3c, 0x8d, 0xb2, 0x1d, 0xbe,
  0x73, 0x2e, 0xc9, 0xbc, 0xcc, 0xe2, 0xae, 0x3d, 0x1c, 0x88, 0xd3, 0x3d,
  0xd4, 0x14, 0x35, 0xbe, 0x7a, 0x33, 0x12, 0xbe, 0x8c, 0x9e, 0x25, 0xbe,
  0x65, 0x67, 0x61, 0x3e, 0xe1, 0xf1, 0x14, 0xbf, 0xdf, 0xec, 0x61, 0x3c,
  0xf9, 0xf0, 0x21, 0xbe, 0x5b, 0x39, 0x54, 0x3e, 0x91, 0x33, 0x5f, 0xbe,
  0x49, 0xb6, 0x87, 0xbe, 0x24, 0xba, 0x77, 0xbe, 0x97, 0x03, 0x01, 0xbb,
  0xe8, 0xbc, 0xb6, 0xbc, 0xde, 0xc7, 0xb8, 0xbd, 0x05, 0x40, 0x06, 0x3d,
  0xe5, 0x07, 0x34, 0xbe, 0x8b, 0x9a, 0xc5, 0xbe, 0xe4, 0x8b, 0xf0, 0xbd,
  0x4a, 0x46, 0x58, 0xbe, 0xf6, 0x44, 0x8a, 0x3d, 0xa0, 0x58, 0x94, 0xbe,
  0x7c, 0x34, 0x17, 0x3e, 0x55, 0xf0, 0x0c, 0x3e, 0x56, 0x77, 0x70, 0x3d,
  0xd5, 0x66, 0x75, 0x3e, 0xc8, 0xba, 0x41, 0xbc, 0x7a, 0xff, 0x15, 0x3c,
  0xbf, 0x64, 0xff, 0xbd, 0xf0, 0x69, 0x9f, 0x3d, 0x01, 0xbe, 0x01, 0xbc,
  0xe4, 0x8c, 0x88, 0xbd, 0xe6, 0xef, 0xcb, 0x3c, 0xaa, 0x67, 0x02, 0xbd,
  0x83, 0x3a, 0x7e, 0xbe, 0x45, 0xf3, 0x23, 0xbe, 0x5f, 0x74, 0x12, 0x3e,
  0x1e, 0xe4, 0xca, 0x3c, 0xf2, 0x96, 0x0b, 0xbe, 0xee, 0x8d, 0xd5, 0x3c,
  0x61, 0x77, 0x75, 0x3d, 0x7a, 0x9e, 0x08, 0x3e, 0x93, 0xbb, 0x9e, 0x3d,
  0xf6, 0xb4, 0xe4, 0x3d, 0x5b, 0x9b, 0xf2, 0x3c, 0x1f, 0xf7, 0x07, 0x3e,
  0xa1, 0xff, 0xd8, 0xbc, 0xe1, 0xec, 0x24, 0xbd, 0x53, 0xe0, 0x24, 0xbd,
  0x9a, 0xe8, 0x45, 0x3d, 0xa0, 0x33, 0x85, 0xbb, 0x2b, 0xca, 0x05, 0xbd,
  0x75, 0xce, 0xea, 0xbd, 0xb3, 0xa7, 0x98, 0xbe, 0xc1, 0xb0, 0x6b, 0xbe,
  0x38, 0x79, 0xd0, 0xbd, 0xec, 0x57, 0xb0, 0x3c, 0x94, 0x2c, 0x89, 0xbd,
  0xad, 0x50, 0x2a, 0xbc, 0x7b, 0xb6, 0xab, 0x3d, 0x13, 0x2c, 0x20, 0xbe,
  0x1b, 0x75, 0x48, 0x3d, 0xdd, 0xc4, 0x02, 0x3e, 0xf1, 0x1a, 0x39, 0xbd,
  0x5b, 0xbe, 0xad, 0x3d, 0x1a, 0xb2, 0xf5, 0x3d, 0xe6, 0x93, 0x8c, 0x3d,
  0x27, 0x20, 0x1b, 0x3e, 0xd3, 0x79, 0x35, 0x3e, 0xd4, 0x0c, 0xcf, 0xbd,
  0x30, 0x7b, 0xbb, 0xbe, 0xb2, 0x38, 0xc9, 0xbd, 0x19, 0x3f, 0x4a, 0xbd,
  0x7d, 0x67, 0xae, 0xbd, 0xd9, 0x0b, 0x68, 0xbc, 0x32, 0x3d, 0xf9, 0x3d,
  0x24, 0xf3, 0x7a, 0x3c, 0x4d, 0xd6, 0x19, 0x3e, 0x9b, 0x8d, 0x03, 0xbd,
  0x83, 0xa7, 0x86, 0xbd, 0xc5, 0xaf, 0x10, 0xbe, 0x36, 0x9b, 0x8b, 0x3d,
  0xaf, 0x42, 0x39, 0x3d, 0x41, 0xe7, 0xa8, 0x3d, 0x5d, 0x9d, 0x8f, 0xbd,
  0x43, 0x48, 0xef, 0x3c, 0xb8, 0x5c, 0x4c, 0xbe, 0xc2, 0xa2, 0x9e, 0xbd,
  0xba, 0xc8, 0x36, 0xbd, 0xff, 0x5a, 0xec, 0xbb, 0x79, 0xda, 0x31, 0xbe,
  0xb2, 0xca, 0x4a, 0xbd, 0xa0, 0x2f, 0xc9, 0xbc, 0x50, 0x8f, 0xa5, 0x3d,
  0x38, 0x3e, 0x81, 0x3d, 0xa4, 0x5f, 0x4f, 0x3c, 0xa7, 0xb3, 0x03, 0xbe,
  0xde, 0x7d, 0x81, 0x3d, 0xb1, 0xf2, 0x88, 0xbd, 0x94, 0x31, 0x87, 0x3d,
  0xd2, 0x63, 0x2c, 0xbe, 0xde, 0x7e, 0x9b, 0x3d, 0x0c, 0x3b, 0x73, 0xbd,
  0x71, 0xa2, 0x06, 0xbe, 0x5f, 0xda, 0x42, 0x3d, 0x96, 0xe4, 0x93, 0xbc,
  0x69, 0x52, 0x5b, 0xbb, 0xe1, 0x81, 0x99, 0xbc, 0x8f, 0xea, 0x63, 0x3c,
  0x8e, 0x94, 0xd7, 0x3d, 0xf0, 0xfa, 0x4e, 0xbd, 0x93, 0x1f, 0xaf, 0xbc,
  0x0e, 0x9a, 0xc3, 0x3d, 0x1d, 0x72, 0x69, 0x3d, 0xdd, 0x6e, 0x01, 0xbc,
  0xf5, 0xac, 0x4b, 0x3c, 0x6a, 0xa4, 0xac, 0xbe, 0x70, 0x25, 0x4a, 0xbe,
  0x9a, 0x5c, 0x9c, 0xbe, 0x4a, 0x7b, 0x3f, 0xbd, 0x06, 0x6f, 0x90, 0x3d,
  0x32, 0xfc, 0xe5, 0xbd, 0x80, 0x65, 0xf2, 0xbd, 0x29, 0x79, 0x82, 0xbc,
  0x04, 0xb8, 0x8d, 0xbd, 0x33, 0xac, 0xf5, 0x3d, 0x86, 0xef, 0xb1, 0x3d,
  0x20, 0xe1, 0xac, 0xbc, 0x1c, 0x40, 0xf7, 0xbd, 0x9e, 0xb6, 0xa7, 0xbd,
  0xaf, 0xcd, 0xe0, 0xbd, 0x59, 0x20, 0x36, 0xbd, 0x2d, 0x62, 0xed, 0xbd,
  0x02, 0x3c, 0x07, 0xbe, 0x09, 0x89, 0x02, 0x3d, 0x48, 0xb7, 0xd1, 0xbd,
  0xc1, 0x28, 0x5a, 0x3c, 0x13, 0x87, 0x70, 0xbc, 0x08, 0xd9, 0x68, 0xbe,
  0xad, 0x46, 0x66, 0x3c, 0xad, 0x75, 0x69, 0xbe, 0x59, 0x73, 0x3e, 0x3d,
  0xcc, 0x2c, 0xdc, 0x3c, 0xa1, 0xe5, 0xc6, 0xbc, 0x85, 0xaf, 0x63, 0xbe,
  0xde, 0x48, 0x5f, 0xbe, 0xda, 0xc3, 0x92, 0xbc, 0x80, 0x2c, 0xc1, 0xbd,
  0xd5, 0x00, 0xa9, 0xbe, 0xb8, 0x71, 0x04, 0xbb, 0x9f, 0x7c, 0xed, 0x3d,
  0xda, 0x15, 0x26, 0xbe, 0x9d, 0x8e, 0xb0, 0xbd, 0xc0, 0x0c, 0x6d, 0x3c,
  0x0c, 0x65, 0x79, 0xbe, 0xcb, 0xe3, 0x49, 0x3d, 0x6e, 0x92, 0x50, 0xbe,
  0x4f, 0x73, 0x0a, 0xbe, 0x53, 0x9e, 0x1f, 0x3c, 0xd6, 0x56, 0x30, 0xbd,
  0x1f, 0x9a, 0x3e, 0xbe, 0xd5, 0x67, 0x65, 0xbc, 0x35, 0x02, 0x14, 0x3d,
  0xd1, 0xd1, 0x7e, 0xbd, 0xd8, 0x17, 0x7b, 0xbd, 0x32, 0x13, 0xbb, 0x3c,
  0x23, 0x3f, 0xe2, 0x3d, 0x45, 0x3d, 0x4f, 0x3c, 0xb9, 0xff, 0x1d, 0xbe,
  0xc5, 0xc1, 0xa2, 0xbd, 0x97, 0x34, 0x45, 0x3e, 0x61, 0x16, 0x6e, 0x3d,
  0xd6, 0xf6, 0x3a, 0x3c, 0x7e, 0x8a, 0x02, 0x3d, 0x5c, 0xcb, 0x8b, 0x3c,
  0x4d, 0x0c, 0x25, 0xbd, 0x3d, 0x3b, 0x1a, 0xbe, 0x53, 0x17, 0x9b, 0xbd,
  0x46, 0x35, 0x74, 0xbe, 0x5f, 0x9d, 0xc6, 0xbd, 0xe5, 0xbc, 0xbe, 0x3d,
  0x34, 0x93, 0x16, 0xbe, 0x12, 0x01, 0x53, 0x3d, 0x35, 0x66, 0x97, 0xbe,
  0x91, 0x0e, 0x07, 0x3e, 0x19, 0xf1, 0x9e, 0xbd, 0x5d, 0x42, 0xd3, 0x3e,
  0xaf, 0xee, 0x41, 0xb9, 0x4a, 0x00, 0x92, 0xbd, 0x9d, 0x84, 0x0b, 0xbe,
  0xdd, 0x8d, 0x10, 0xbe, 0xfe, 0x0e, 0xf3, 0x3c, 0xa7, 0x2a, 0x03, 0xbe,
  0xb2, 0xfd, 0xe2, 0xbd, 0x26, 0xbf, 0x4f, 0xbe, 0x2b, 0x57, 0xdb, 0x3d,
  0x14, 0xb8, 0x01, 0x3e, 0x85, 0x14, 0x96, 0xbe, 0x5f, 0x9f, 0xb2, 0xbc,
  0x34, 0x6c, 0x00, 0xbe, 0x3a, 0xf2, 0xf1, 0x3c, 0xa6, 0x5a, 0xc1, 0xbe,
  0x67, 0xbc, 0x8d, 0xbe, 0x9f, 0x6f, 0xf3, 0xbd, 0x9e, 0x68, 0x06, 0xbe,
  0x93, 0x68, 0x3e, 0xbe, 0x93, 0x06, 0x20, 0xbe, 0xcc, 0x13, 0x26, 0x3d,
  0x74, 0x27, 0x14, 0x3c, 0x2a, 0x5f, 0xd0, 0xbe, 0x09, 0x1a, 0xc5, 0x3d,
  0x5e, 0x8f, 0xa8, 0x3e, 0xd1, 0xeb, 0x7b, 0xbe, 0x7f, 0x15, 0x29, 0x3e,
  0x04, 0x39, 0x0f, 0xbe, 0x76, 0x53, 0xb8, 0x3b, 0x83, 0x1e, 0xc8, 0x3e,
  0xf3, 0xe9, 0xaf, 0x3b, 0x77, 0x53, 0x1a, 0xbe, 0x04, 0xaa, 0x27, 0x3d,
  0x52, 0x91, 0x40, 0xbe, 0x2f, 0x8d, 0xcd, 0x3e, 0x8a, 0xfb, 0x3f, 0x3d,
  0x54, 0x3c, 0x91, 0xbd, 0x5e, 0x0b, 0x30, 0x3f, 0xcd, 0x5f, 0x6c, 0x3e,
  0xc1, 0x00, 0x93, 0xbd, 0xa5, 0x21, 0x21, 0x3f, 0x02, 0x25, 0x38, 0xbe,
  0x3a, 0x7e, 0x55, 0x3e, 0xcf, 0x51, 0xc2, 0xbd, 0x85, 0xf8, 0x69, 0xbe,
  0x0b, 0xd4, 0xf7, 0x3e, 0xfb, 0x6f, 0xcf, 0x3d, 0xed, 0x53, 0xd9, 0x3d,
  0x18, 0x2d, 0x1d, 0x3e, 0xef, 0xe7, 0x8f, 0xbd, 0xac, 0xbd, 0x18, 0x3e,
  0xe2, 0x2f, 0x13, 0x3e, 0x59, 0xd6, 0x3e, 0xbe, 0x38, 0x47, 0x6c, 0x3f,
  0x2a, 0x3e, 0x39, 0xbd, 0x75, 0xed, 0x7e, 0x3d, 0x4a, 0x46, 0x91, 0x3e,
  0xf5, 0xf6, 0xf4, 0xbd, 0xfd, 0x7c, 0x11, 0xbc, 0x78, 0x61, 0xaf, 0x3d,
  0xb6, 0x08, 0x35, 0xbe, 0xc1, 0xf0, 0xd2, 0x3e, 0xda, 0xb1, 0x2c, 0x3e,
  0x43, 0x17, 0xac, 0x3e, 0x2c, 0xc7, 0x4c, 0xbe, 0xeb, 0xcf, 0xb8, 0x3d,
  0xe3, 0x37, 0x97, 0x3e, 0x65, 0xe2, 0x0d, 0x3e, 0xa0, 0xec, 0xf9, 0xbc,
  0xaa, 0x22, 0x39, 0x3f, 0x7d, 0xa1, 0x9d, 0xbd, 0x96, 0x23, 0x87, 0x3d,
  0xb1, 0x40, 0x87, 0x3e, 0x3e, 0x11, 0x0b, 0xbe, 0xe1, 0x47, 0x95, 0xbd,
  0x05, 0x63, 0x3c, 0xbd, 0xda, 0x73, 0x71, 0x3e, 0xbd, 0x36, 0x87, 0x3e,
  0x2f, 0xcc, 0x97, 0x3e, 0xe4, 0x75, 0x9c, 0x3e, 0xa3, 0x9c, 0x38, 0xbe,
  0x50, 0x05, 0xe3, 0x3d, 0x56, 0xe4, 0x86, 0x3e, 0x2a, 0x87, 0x0c, 0x3d,
  0x2d, 0xe5, 0x8f, 0xbe, 0x3d, 0xef, 0x93, 0x3f, 0x5e, 0xeb, 0x64, 0xbd,
  0x9e, 0x2c, 0x80, 0xbe, 0xbd, 0x51, 0xd6, 0x3e, 0x74, 0x4e, 0x3b, 0xbe,
  0x5c, 0x80, 0xd1, 0xbd, 0x3f, 0xf1, 0x3d, 0xbc, 0xf9, 0xb6, 0x23, 0x3e,
  0xe4, 0x21, 0x89, 0x3e, 0x38, 0x86, 0x6d, 0x3d, 0xba, 0x83, 0x24, 0x3e,
  0xac, 0x7d, 0x29, 0x3d, 0xc3, 0xee, 0x35, 0x3d, 0x31, 0x8f, 0xb2, 0x3e,
  0x56, 0xae, 0x62, 0x3e, 0x54, 0xbe, 0x93, 0xbd, 0x84, 0x3a, 0x6e, 0x3f,
  0xcd, 0x73, 0x40, 0x3e, 0x8d, 0xa3, 0x3c, 0x3d, 0x4b, 0x51, 0xee, 0x3e,
  0xaa, 0xc6, 0x9c, 0xbe, 0x10, 0xb2, 0x96, 0x3e, 0x6f, 0x53, 0x3e, 0xbe,
  0xf1, 0x7c, 0xc6, 0x3d, 0x64, 0x42, 0xd4, 0x3e, 0x6e, 0x64, 0x94, 0xbc,
  0x42, 0x3b, 0x8a, 0xbd, 0xe3, 0x6f, 0xd7, 0xbd, 0x0c, 0x28, 0x6f, 0xbd,
  0x1b, 0xc2, 0x25, 0x3e, 0x2e, 0x53, 0x51, 0x3e, 0xbd, 0x7a, 0x14, 0xbd,
  0x2c, 0xed, 0x71, 0x3f, 0x84, 0xf1, 0xb8, 0x3e, 0x62, 0xe1, 0x3d, 0xbd,
  0x6d, 0x19, 0x15, 0x3f, 0xfd, 0xd8, 0xb9, 0xbd, 0x44, 0xf1, 0x99, 0xbc,
  0x7d, 0xd8, 0xb9, 0x3b, 0x79, 0xb5, 0x14, 0xbe, 0x3a, 0x5e, 0x17, 0x3e,
  0xa9, 0x2c, 0x3c, 0xbc, 0x9f, 0x59, 0xe0, 0xbd, 0xe8, 0x11, 0xa3, 0xbe,
  0x32, 0x21, 0x88, 0x3c, 0x34, 0xdb, 0x4a, 0xbd, 0x88, 0x67, 0x9e, 0xbc,
  0x49, 0x4e, 0x81, 0xbe, 0x16, 0xe1, 0xdc, 0x3e, 0x7f, 0xbe, 0xc3, 0x3c,
  0x46, 0xfe, 0xff, 0xff, 0x10, 0x00, 0x00, 0x00, 0x05, 0x00, 0x00, 0x00,
  0x14, 0x00, 0x00, 0x00, 0x2c, 0x00, 0x00, 0x00, 0x02, 0x00, 0x00, 0x00,
  0x10, 0x00, 0x00, 0x00, 0x70, 0x00, 0x00, 0x00, 0x17, 0x00, 0x00, 0x00,
  0x73, 0x65, 0x71, 0x75, 0x65, 0x6e, 0x74, 0x69, 0x61, 0x6c, 0x2f, 0x64,
  0x65, 0x6e, 0x73, 0x65, 0x2f, 0x4d, 0x61, 0x74, 0x4d, 0x75, 0x6c, 0x00,
  0x34, 0xfe, 0xff, 0xff, 0x2a, 0xff, 0xff, 0xff, 0x04, 0x00, 0x00, 0x00,
  0x08, 0x00, 0x00, 0x00, 0xff, 0xff, 0xff, 0xff, 0x70, 0x00, 0x00, 0x00,
  0x00, 0x00, 0x0e, 0x00, 0x18, 0x00, 0x08, 0x00, 0x07, 0x00, 0x0c, 0x00,
  0x10, 0x00, 0x14, 0x00, 0x0e, 0x00, 0x00, 0x00, 0x00, 0x00, 0x00, 0x02,
  0x10, 0x00, 0x00, 0x00, 0x04, 0x00, 0x00, 0x00, 0x10, 0x00, 0x00, 0x00,
  0x2c, 0x00, 0x00, 0x00, 0x01, 0x00, 0x00, 0x00, 0x02, 0x00, 0x00, 0x00,
  0x18, 0x00, 0x00, 0x00, 0x73, 0x65, 0x71, 0x75, 0x65, 0x6e, 0x74, 0x69,
  0x61, 0x6c, 0x2f, 0x66, 0x6c, 0x61, 0x74, 0x74, 0x65, 0x6e, 0x2f, 0x43,
  0x6f, 0x6e, 0x73, 0x74, 0x00, 0x00, 0x00, 0x00, 0x9c, 0xfe, 0xff, 0xff,
  0x92, 0xff, 0xff, 0xff, 0x04, 0x00, 0x00, 0x00, 0x10, 0x00, 0x00, 0x00,
  0x4b, 0x5b, 0xbf, 0xbf, 0x4c, 0xe0, 0xdc, 0x3e, 0xf9, 0xe3, 0x24, 0x3f,
  0xf8, 0x34, 0xa9, 0xbe, 0x0a, 0xff, 0xff, 0xff, 0x10, 0x00, 0x00, 0x00,
  0x03, 0x00, 0x00, 0x00, 0x10, 0x00, 0x00, 0x00, 0x3c, 0x00, 0x00, 0x00,
  0x01, 0x00, 0x00, 0x00, 0x04, 0x00, 0x00, 0x00, 0x29, 0x00, 0x00, 0x00,
  0x73, 0x65, 0x71, 0x75, 0x65, 0x6e, 0x74, 0x69, 0x61, 0x6c, 0x2f, 0x64,
  0x65, 0x6e, 0x73, 0x65, 0x5f, 0x31, 0x2f, 0x42, 0x69, 0x61, 0x73, 0x41,
  0x64, 0x64, 0x2f, 0x52, 0x65, 0x61, 0x64, 0x56, 0x61, 0x72, 0x69, 0x61,
  0x62, 0x6c, 0x65, 0x4f, 0x70, 0x00, 0x00, 0x00, 0x60, 0xff, 0xff, 0xff,
  0x00, 0x00, 0x06, 0x00, 0x08, 0x00, 0x04, 0x00, 0x06, 0x00, 0x00, 0x00,
  0x04, 0x00, 0x00, 0x00, 0x40, 0x00, 0x00, 0x00, 0xe1, 0xe3, 0xd8, 0xbe,
  0x43, 0xf9, 0xfb, 0xbd, 0x0f, 0x05, 0xe4, 0x3d, 0x32, 0x23, 0x56, 0xbd,
  0xa4, 0x8e, 0x03, 0xbe, 0x25, 0x5f, 0x89, 0xbe, 0x48, 0x23, 0xe6, 0xbd,
  0x0a, 0xf7, 0x65, 0x3f, 0xe9, 0x3c, 0xf9, 0xbd, 0xaf, 0x57, 0x3b, 0xbe,
  0x1a, 0x6e, 0xff, 0xbd, 0xce, 0x84, 0x3b, 0xbe, 0x77, 0x06, 0x52, 0x3f,
  0x10, 0xf2, 0xa6, 0xbe, 0x5c, 0x12, 0xfe, 0x3c, 0x29, 0x9b, 0xc5, 0xbe,
  0xae, 0xff, 0xff, 0xff, 0x10, 0x00, 0x00, 0x00, 0x02, 0x00, 0x00, 0x00,
  0x10, 0x00, 0x00, 0x00, 0x3c, 0x00, 0x00, 0x00, 0x01, 0x00, 0x00, 0x00,
  0x10, 0x00, 0x00, 0x00, 0x27, 0x00, 0x00, 0x00, 0x73, 0x65, 0x71, 0x75,
  0x65, 0x6e, 0x74, 0x69, 0x61, 0x6c, 0x2f, 0x64, 0x65, 0x6e, 0x73, 0x65,
  0x2f, 0x42, 0x69, 0x61, 0x73, 0x41, 0x64, 0x64, 0x2f, 0x52, 0x65, 0x61,
  0x64, 0x56, 0x61, 0x72, 0x69, 0x61, 0x62, 0x6c, 0x65, 0x4f, 0x70, 0x00,
  0x04, 0x00, 0x06, 0x00, 0x04, 0x00, 0x00, 0x00, 0x00, 0x00, 0x0e, 0x00,
  0x14, 0x00, 0x04, 0x00, 0x00, 0x00, 0x08, 0x00, 0x0c, 0x00, 0x10, 0x00,
  0x0e, 0x00, 0x00, 0x00, 0x10, 0x00, 0x00, 0x00, 0x01, 0x00, 0x00, 0x00,
  0x1c, 0x00, 0x00, 0x00, 0x2c, 0x00, 0x00, 0x00, 0x04, 0x00, 0x00, 0x00,
  0x01, 0x00, 0x00, 0x00, 0x40, 0x00, 0x00, 0x00, 0x03, 0x00, 0x00, 0x00,
  0x01, 0x00, 0x00, 0x00, 0x0c, 0x00, 0x00, 0x00, 0x63, 0x6f, 0x6e, 0x76,
  0x32, 0x64, 0x5f, 0x69, 0x6e, 0x70, 0x75, 0x74, 0x00, 0x00, 0x00, 0x00,
  0xfc, 0xff, 0xff, 0xff, 0x04, 0x00, 0x04, 0x00, 0x04, 0x00, 0x00, 0x00





};


unsigned int model_tflite_len = 12384;// Fill the int in `src/model.cc` here